{
    "<s>": 0,
    "<pad>": 1,
    "</s>": 2,
    "<unk>": 3,
    "<mask>": 4,
    "!": 5,
    "\"": 6,
    "#": 7,
    "$": 8,
    "%": 9,
    "&": 10,
    "'": 11,
    "(": 12,
    ")": 13,
    "*": 14,
    "+": 15,
    ",": 16,
    "-": 17,
    ".": 18,
    "/": 19,
    "0": 20,
    "1": 21,
    "2": 22,
    "3": 23,
    "4": 24,
    "5": 25,
    "6": 26,
    "7": 27,
    "8": 28,
    "9": 29,
    ":": 30,
    ";": 31,
    "<": 32,
    "=": 33,
    ">": 34,
    "?": 35,
    "@": 36,
    "A": 37,
    "B": 38,
    "C": 39,
    "D": 40,
    "E": 41,
    "F": 42,
    "G": 43,
    "H": 44,
    "I": 45,
    "J": 46,
    "K": 47,
    "L": 48,
    "M": 49,
    "N": 50,
    "O": 51,
    "P": 52,
    "Q": 53,
    "R": 54,
    "S": 55,
    "T": 56,
    "U": 57,
    "V": 58,
    "W": 59,
    "X": 60,
    "Y": 61,
    "Z": 62,
    "[": 63,
    "\\": 64,
    "]": 65,
    "^": 66,
    "_": 67,
    "`": 68,
    "a": 69,
    "b": 70,
    "c": 71,
    "d": 72,
    "e": 73,
    "f": 74,
    "g": 75,
    "h": 76,
    "i": 77,
    "j": 78,
    "k": 79,
    "l": 80,
    "m": 81,
    "n": 82,
    "o": 83,
    "p": 84,
    "q": 85,
    "r": 86,
    "s": 87,
    "t": 88,
    "u": 89,
    "v": 90,
    "w": 91,
    "x": 92,
    "y": 93,
    "z": 94,
    "{": 95,
    "|": 96,
    "}": 97,
    "~": 98,
    "¡": 99,
    "¢": 100,
    "£": 101,
    "¤": 102,
    "¥": 103,
    "¦": 104,
    "§": 105,
    "¨": 106,
    "©": 107,
    "ª": 108,
    "«": 109,
    "¬": 110,
    "®": 111,
    "¯": 112,
    "°": 113,
    "±": 114,
    "²": 115,
    "³": 116,
    "´": 117,
    "µ": 118,
    "¶": 119,
    "·": 120,
    "¸": 121,
    "¹": 122,
    "º": 123,
    "»": 124,
    "¼": 125,
    "½": 126,
    "¾": 127,
    "¿": 128,
    "À": 129,
    "Á": 130,
    "Â": 131,
    "Ã": 132,
    "Ä": 133,
    "Å": 134,
    "Æ": 135,
    "Ç": 136,
    "È": 137,
    "É": 138,
    "Ê": 139,
    "Ë": 140,
    "Ì": 141,
    "Í": 142,
    "Î": 143,
    "Ï": 144,
    "Ð": 145,
    "Ñ": 146,
    "Ò": 147,
    "Ó": 148,
    "Ô": 149,
    "Õ": 150,
    "Ö": 151,
    "×": 152,
    "Ø": 153,
    "Ù": 154,
    "Ú": 155,
    "Û": 156,
    "Ü": 157,
    "Ý": 158,
    "Þ": 159,
    "ß": 160,
    "à": 161,
    "á": 162,
    "â": 163,
    "ã": 164,
    "ä": 165,
    "å": 166,
    "æ": 167,
    "ç": 168,
    "è": 169,
    "é": 170,
    "ê": 171,
    "ë": 172,
    "ì": 173,
    "í": 174,
    "î": 175,
    "ï": 176,
    "ð": 177,
    "ñ": 178,
    "ò": 179,
    "ó": 180,
    "ô": 181,
    "õ": 182,
    "ö": 183,
    "÷": 184,
    "ø": 185,
    "ù": 186,
    "ú": 187,
    "û": 188,
    "ü": 189,
    "ý": 190,
    "þ": 191,
    "ÿ": 192,
    "Ā": 193,
    "ā": 194,
    "Ă": 195,
    "ă": 196,
    "Ą": 197,
    "ą": 198,
    "Ć": 199,
    "ć": 200,
    "Ĉ": 201,
    "ĉ": 202,
    "Ċ": 203,
    "ċ": 204,
    "Č": 205,
    "č": 206,
    "Ď": 207,
    "ď": 208,
    "Đ": 209,
    "đ": 210,
    "Ē": 211,
    "ē": 212,
    "Ĕ": 213,
    "ĕ": 214,
    "Ė": 215,
    "ė": 216,
    "Ę": 217,
    "ę": 218,
    "Ě": 219,
    "ě": 220,
    "Ĝ": 221,
    "ĝ": 222,
    "Ğ": 223,
    "ğ": 224,
    "Ġ": 225,
    "ġ": 226,
    "Ģ": 227,
    "ģ": 228,
    "Ĥ": 229,
    "ĥ": 230,
    "Ħ": 231,
    "ħ": 232,
    "Ĩ": 233,
    "ĩ": 234,
    "Ī": 235,
    "ī": 236,
    "Ĭ": 237,
    "ĭ": 238,
    "Į": 239,
    "į": 240,
    "İ": 241,
    "ı": 242,
    "Ĳ": 243,
    "ĳ": 244,
    "Ĵ": 245,
    "ĵ": 246,
    "Ķ": 247,
    "ķ": 248,
    "ĸ": 249,
    "Ĺ": 250,
    "ĺ": 251,
    "Ļ": 252,
    "ļ": 253,
    "Ľ": 254,
    "ľ": 255,
    "Ŀ": 256,
    "ŀ": 257,
    "Ł": 258,
    "ł": 259,
    "Ń": 260,
    "Ġk": 261,
    "ar": 262,
    "Ġm": 263,
    "Ġs": 264,
    "Ġh": 265,
    "er": 266,
    "Ġa": 267,
    "ye": 268,
    "Ġke": 269,
    "Ġkar": 270,
    "Ġl": 271,
    "Ġb": 272,
    "ai": 273,
    "Ġt": 274,
    "Ġko": 275,
    "iye": 276,
    "Ġp": 277,
    "in": 278,
    "ya": 279,
    "Ġliye": 280,
    "Ġme": 281,
    "Ġba": 282,
    "ne": 283,
    "Ġd": 284,
    "Ġr": 285,
    "Ġhai": 286,
    "he": 287,
    "Ġse": 288,
    "ha": 289,
    "Ġkare": 290,
    "Ġki": 291,
    "al": 292,
    "Ġc": 293,
    "on": 294,
    "te": 295,
    "as": 296,
    "ay": 297,
    "arm": 298,
    "le": 299,
    "at": 300,
    "Ġal": 301,
    "Ġw": 302,
    "uj": 303,
    "ur": 304,
    "en": 305,
    "Ġalarm": 306,
    "mer": 307,
    "Ġre": 308,
    "Ġka": 309,
    "na": 310,
    "sa": 311,
    "or": 312,
    "ic": 313,
    "is": 314,
    "Ġbaj": 315,
    "ek": 316,
    "Ġset": 317,
    "ujhe": 318,
    "Ġho": 319,
    "an": 320,
    "ah": 321,
    "min": 322,
    "Ġpar": 323,
    "Ġti": 324,
    "day": 325,
    "mind": 326,
    "ak": 327,
    "ge": 328,
    "un": 329,
    "Ġremind": 330,
    "Ġ?": 331,
    "ad": 332,
    "aj": 333,
    "Ġmer": 334,
    "Ġg": 335,
    "hi": 336,
    "ta": 337,
    "Ġhe": 338,
    "ra": 339,
    "ch": 340,
    "Ġreminder": 341,
    "kya": 342,
    "Ġkit": 343,
    "Ġj": 344,
    "il": 345,
    "us": 346,
    "am": 347,
    "Ġbaje": 348,
    "Ġf": 349,
    "Ġwe": 350,
    "ti": 351,
    "aye": 352,
    "Ġra": 353,
    "Ġkya": 354,
    "Ġkaro": 355,
    "ff": 356,
    "Ġcha": 357,
    "ute": 358,
    "Ġtimer": 359,
    "ing": 360,
    "ase": 361,
    "Ġmin": 362,
    "ent": 363,
    "Ġtra": 364,
    "Ġmere": 365,
    "ga": 366,
    "lease": 367,
    "es": 368,
    "ffic": 369,
    "Ġ.": 370,
    "ni": 371,
    "Ġminute": 372,
    "Ġdo": 373,
    "Kya": 374,
    "ub": 375,
    "Ġtraffic": 376,
    "Ġja": 377,
    "re": 378,
    "Ġya": 379,
    "me": 380,
    "Ġmujhe": 381,
    "Ġ1": 382,
    "Ġek": 383,
    "mujhe": 384,
    "Ġtak": 385,
    "Ġaur": 386,
    "sage": 387,
    "Ġkarne": 388,
    "Ġminutes": 389,
    "Ġmes": 390,
    "bhi": 391,
    "el": 392,
    "Ġla": 393,
    "ri": 394,
    "har": 395,
    "Ġmessage": 396,
    "Ġweek": 397,
    "oo": 398,
    "Ġdil": 399,
    "Ġsub": 400,
    "Ġaaj": 401,
    "nd": 402,
    "Ġkaren": 403,
    "Ġkitna": 404,
    "Ġwal": 405,
    "Ġyaad": 406,
    "Ġto": 407,
    "ĠS": 408,
    "mere": 409,
    "se": 410,
    "kal": 411,
    "Ġchah": 412,
    "ho": 413,
    "Ġhu": 414,
    "Ġsa": 415,
    "uje": 416,
    "ong": 417,
    "are": 418,
    "Ġde": 419,
    "th": 420,
    "Ġe": 421,
    "Ġmai": 422,
    "Ġte": 423,
    "Ġhone": 424,
    "Ġkai": 425,
    "Ġ5": 426,
    "ane": 427,
    "ĠC": 428,
    "ath": 429,
    "Ġraat": 430,
    "ap": 431,
    "lay": 432,
    "ast": 433,
    "ck": 434,
    "anc": 435,
    "atur": 436,
    "do": 437,
    "Ġkaisa": 438,
    "Ġdi": 439,
    "end": 440,
    "ĠM": 441,
    "Ġsong": 442,
    "Ġtime": 443,
    "Ġ3": 444,
    "Ġkoi": 445,
    "it": 446,
    "up": 447,
    "hur": 448,
    "et": 449,
    "Ġap": 450,
    "Ġalarms": 451,
    "id": 452,
    "Ġplay": 453,
    "Ġsak": 454,
    "Ġsubah": 455,
    "Ġis": 456,
    "Ġpm": 457,
    "Please": 458,
    "ist": 459,
    "st": 460,
    "ve": 461,
    "Ġ2": 462,
    "Ġpa": 463,
    "Ġmei": 464,
    "Ġni": 465,
    "uch": 466,
    "ro": 467,
    "timer": 468,
    "ag": 469,
    "xt": 470,
    "ĠT": 471,
    "gh": 472,
    "Ġkal": 473,
    "usic": 474,
    "Mer": 475,
    "Ġfor": 476,
    "ao": 477,
    "gi": 478,
    "Ġna": 479,
    "um": 480,
    "Ġchahiye": 481,
    "Ġ6": 482,
    "ec": 483,
    "Ġcanc": 484,
    "ke": 485,
    "ts": 486,
    "Ġ,": 487,
    "Ġcancel": 488,
    "Ġthe": 489,
    "Ġam": 490,
    "Ġreminders": 491,
    "Ġev": 492,
    "Ġaap": 493,
    "Ġweekend": 494,
    "ol": 495,
    "Ġband": 496,
    "mp": 497,
    "ĠF": 498,
    "au": 499,
    "Ġsha": 500,
    "Ġ7": 501,
    "Ġro": 502,
    "ate": 503,
    "Ġbajao": 504,
    "Ġdik": 505,
    "ly": 506,
    "ĠA": 507,
    "Ġkitni": 508,
    "ĠP": 509,
    "ish": 510,
    "Ġsam": 511,
    "ayen": 512,
    "ather": 513,
    "ed": 514,
    "Ġst": 515,
    "ahar": 516,
    "ir": 517,
    "Ġpah": 518,
    "Ġcon": 519,
    "Muje": 520,
    "Ġ8": 521,
    "Ġdin": 522,
    "han": 523,
    "Ġkab": 524,
    "Aaj": 525,
    "ĠB": 526,
    "Ġmusic": 527,
    "sam": 528,
    "ow": 529,
    "ork": 530,
    "and": 531,
    "Ġ10": 532,
    "Ġz": 533,
    "Ġsamay": 534,
    "Ġnikal": 535,
    "Ġo": 536,
    "ents": 537,
    "Ġdila": 538,
    "af": 539,
    "Ġbata": 540,
    "Ġweather": 541,
    "Ġ4": 542,
    "Ġshur": 543,
    "arish": 544,
    "unch": 545,
    "Ġwala": 546,
    "Ġshuru": 547,
    "Ġup": 548,
    "Ġbhe": 549,
    "Mere": 550,
    "sday": 551,
    "Ġpe": 552,
    "Ġbhej": 553,
    "Ġabhi": 554,
    "please": 555,
    "lete": 556,
    "eratur": 557,
    "Ġkardo": 558,
    "mperatur": 559,
    "Mujhe": 560,
    "Ġlage": 561,
    "Ġdelete": 562,
    "Ġ9": 563,
    "Ġkitne": 564,
    "Ġne": 565,
    "ausam": 566,
    "mperature": 567,
    "Ġghar": 568,
    "use": 569,
    "cha": 570,
    "ze": 571,
    "Ġad": 572,
    "Is": 573,
    "Ġbad": 574,
    "Ġmausam": 575,
    "Ġdikha": 576,
    "Ġdop": 577,
    "igh": 578,
    "po": 579,
    "Ġco": 580,
    "Ġmera": 581,
    "ut": 582,
    "ĠD": 583,
    "Ġsun": 584,
    "aaj": 585,
    "Ġtemperature": 586,
    "Ġhaf": 587,
    "Ġpaas": 588,
    "Ġle": 589,
    "tion": 590,
    "Ġmuje": 591,
    "int": 592,
    "ecast": 593,
    "Ġsn": 594,
    "Ġsakte": 595,
    "Ġhoga": 596,
    "Ġforecast": 597,
    "cer": 598,
    "Ġadd": 599,
    "ues": 600,
    "riday": 601,
    "ki": 602,
    "Ġv": 603,
    "Ġhafte": 604,
    "Ġplease": 605,
    "Ġbajhe": 606,
    "la": 607,
    "Ġlagega": 608,
    "ment": 609,
    "Ġag": 610,
    "Ġbana": 611,
    "alarm": 612,
    "Ġbe": 613,
    "Ġevents": 614,
    "ĠW": 615,
    "Ġdilaye": 616,
    "hle": 617,
    "jiye": 618,
    "Ġpahunch": 619,
    "ew": 620,
    "Ġdri": 621,
    "Ġsabhi": 622,
    "Ġdopahar": 623,
    "ĠH": 624,
    "ĠN": 625,
    "Ġjaane": 626,
    "Ġghan": 627,
    "Ġ30": 628,
    "Ġbaarish": 629,
    "all": 630,
    "onday": 631,
    "Ġrahe": 632,
    "ion": 633,
    "Ġhoon": 634,
    "aturday": 635,
    "Ġzar": 636,
    "ĠL": 637,
    "Ġpo": 638,
    "Ġraha": 639,
    "Ġchahta": 640,
    "mai": 641,
    "Ġmo": 642,
    "Ġpas": 643,
    "Ġsubha": 644,
    "art": 645,
    "ond": 646,
    "ĠI": 647,
    "Ġrep": 648,
    "lo": 649,
    "Ġhogi": 650,
    "Ġpehle": 651,
    "Ġga": 652,
    "uesday": 653,
    "Ġwali": 654,
    "che": 655,
    "ine": 656,
    "ĠJ": 657,
    "urr": 658,
    "hir": 659,
    "ooze": 660,
    "eat": 661,
    "ation": 662,
    "Ġghante": 663,
    "Ġmeri": 664,
    "Ġtext": 665,
    "da": 666,
    "Ġ:": 667,
    "Ġkaraye": 668,
    "Ġaj": 669,
    "agle": 670,
    "Ag": 671,
    "Ġshaam": 672,
    "Ġsnooze": 673,
    "bse": 674,
    "Kal": 675,
    "di": 676,
    "Ġchal": 677,
    "Ġdrive": 678,
    "ort": 679,
    "Ġsakta": 680,
    "Ġdilaayen": 681,
    "Ġaas": 682,
    "unga": 683,
    "Ġappo": 684,
    "ver": 685,
    "ick": 686,
    "co": 687,
    "Ġappoint": 688,
    "ction": 689,
    "Ġjo": 690,
    "ning": 691,
    "Ġphir": 692,
    "Ġbacha": 693,
    "Ġappointment": 694,
    "ce": 695,
    "lan": 696,
    "ct": 697,
    "Ġconcer": 698,
    "nge": 699,
    "ĠK": 700,
    "Ġhar": 701,
    "Ġbataye": 702,
    "Ġkuch": 703,
    "Ġat": 704,
    "Ġ'": 705,
    "urrent": 706,
    "Ġye": 707,
    "ou": 708,
    "ton": 709,
    "Ġbaare": 710,
    "Ġlag": 711,
    "ity": 712,
    "hr": 713,
    "Ġtha": 714,
    "Ġkijiye": 715,
    "wn": 716,
    "Ġkariye": 717,
    "edne": 718,
    "Ġdikhao": 719,
    "ĠG": 720,
    "eting": 721,
    "ana": 722,
    "Ġbar": 723,
    "hursday": 724,
    "Ġsham": 725,
    "Ġsabse": 726,
    "li": 727,
    "ner": 728,
    "Ġus": 729,
    "Ġkon": 730,
    "Ġwork": 731,
    "Ġwale": 732,
    "umb": 733,
    "ĠR": 734,
    "Ġkesa": 735,
    "Ġlene": 736,
    "mas": 737,
    "ty": 738,
    "Ġn": 739,
    "ata": 740,
    "sak": 741,
    "ile": 742,
    "Ġsho": 743,
    "Ġbol": 744,
    "Ġagle": 745,
    "ry": 746,
    "si": 747,
    "Ġmeeting": 748,
    "Ġjane": 749,
    "00": 750,
    "ĠY": 751,
    "ara": 752,
    "Ġac": 753,
    "Ġkarna": 754,
    "Ġpuch": 755,
    "Ġche": 756,
    "Ġwa": 757,
    "Ġbadal": 758,
    "ter": 759,
    "Ġkhar": 760,
    "Ġand": 761,
    "arey": 762,
    "30": 763,
    "ab": 764,
    "cond": 765,
    "istmas": 766,
    "Ġin": 767,
    "Ġuse": 768,
    "aiye": 769,
    "ill": 770,
    "Ġ-": 771,
    "Ġpad": 772,
    "Ġdek": 773,
    "ree": 774,
    "ood": 775,
    "Ġpahunchne": 776,
    "Ġon": 777,
    "Ġsecond": 778,
    "Ġgarm": 779,
    "Ġ15": 780,
    "Ġ20": 781,
    "hne": 782,
    "ĠE": 783,
    "Ġski": 784,
    "Ġgro": 785,
    "Ġcre": 786,
    "ber": 787,
    "ka": 788,
    "und": 789,
    "Ġraas": 790,
    "hristmas": 791,
    "unt": 792,
    "Ġnaya": 793,
    "Ġbanaye": 794,
    "Ġskip": 795,
    "av": 796,
    "ie": 797,
    "Ġli": 798,
    "Ġmein": 799,
    "ool": 800,
    "ĠFriday": 801,
    "Ġmil": 802,
    "Ġsath": 803,
    "list": 804,
    "Ġkarsak": 805,
    "Ġth": 806,
    "est": 807,
    "Ġdinner": 808,
    "Ġbarf": 809,
    "ru": 810,
    "ide": 811,
    "ednesday": 812,
    "Ġcreate": 813,
    "sub": 814,
    "ain": 815,
    "Ġbaad": 816,
    "ust": 817,
    "oon": 818,
    "ĠO": 819,
    "Ġaler": 820,
    "ahine": 821,
    "ake": 822,
    "Ġpoho": 823,
    "Agar": 824,
    "op": 825,
    "oor": 826,
    "Ġrah": 827,
    "Ġkaam": 828,
    "Ġnikalta": 829,
    "Ġmahine": 830,
    "Ġparty": 831,
    "Ġsongs": 832,
    "Ġplaylist": 833,
    "own": 834,
    "Ġrepeat": 835,
    "Ġpohoch": 836,
    "if": 837,
    "land": 838,
    "om": 839,
    "Ġhigh": 840,
    "Ġden": 841,
    "Ġtrack": 842,
    "abhi": 843,
    "ul": 844,
    "Ġmile": 845,
    "Ġkis": 846,
    "ass": 847,
    "Ġnahi": 848,
    "Ġder": 849,
    "Ġres": 850,
    "unday": 851,
    "agar": 852,
    "Ġbhejo": 853,
    "Ġzaroor": 854,
    "urat": 855,
    "Ġhour": 856,
    "Ġkiye": 857,
    "Ġwo": 858,
    "Ġbheje": 859,
    "ĠYork": 860,
    "ari": 861,
    "ook": 862,
    "Ġtoh": 863,
    "thday": 864,
    "Ġpahuch": 865,
    "Ġnext": 866,
    "ĠNew": 867,
    "Ġzarurat": 868,
    "Ġseconds": 869,
    "Ġkarsakte": 870,
    "dy": 871,
    "val": 872,
    "Ġy": 873,
    "ers": 874,
    "Ġlo": 875,
    "Ġlast": 876,
    "Ġch": 877,
    "mera": 878,
    "chool": 879,
    "Ġchange": 880,
    "Ġdilayen": 881,
    "ight": 882,
    "Ġconcerts": 883,
    "Ġpucho": 884,
    "date": 885,
    "way": 886,
    "Ġkarke": 887,
    "onth": 888,
    "Ġdoor": 889,
    "irthday": 890,
    "Ġbatao": 891,
    "Ġrahega": 892,
    "Ġshow": 893,
    "Ġbolo": 894,
    "Ġalert": 895,
    "Ġzaroorat": 896,
    "fy": 897,
    "ark": 898,
    "Ġhun": 899,
    "Ġhata": 900,
    "Ġcar": 901,
    "orning": 902,
    "set": 903,
    "Ġpause": 904,
    "ach": 905,
    "ora": 906,
    "amb": 907,
    "10": 908,
    "lass": 909,
    "Ġhum": 910,
    "Ġroad": 911,
    "we": 912,
    "Ġupdate": 913,
    "Ġacc": 914,
    "Ġmonth": 915,
    "Ġpick": 916,
    "Ġ11": 917,
    "ĠSaturday": 918,
    "ĠTuesday": 919,
    "Ġnew": 920,
    "Ġdikhaye": 921,
    "Ġgarmi": 922,
    "ruction": 923,
    "Me": 924,
    "Ti": 925,
    "town": 926,
    "ume": 927,
    "Ġun": 928,
    "Ġlamb": 929,
    "Ġfir": 930,
    "Ġsunna": 931,
    "de": 932,
    "ago": 933,
    "ctor": 934,
    "Ġaccid": 935,
    "mber": 936,
    "ary": 937,
    "Ġbhi": 938,
    "Ġbirthday": 939,
    "yada": 940,
    "icago": 941,
    "ille": 942,
    "ame": 943,
    "struction": 944,
    "Ġgaane": 945,
    "subah": 946,
    "Al": 947,
    "to": 948,
    "Ġmorning": 949,
    "next": 950,
    "Ġkaha": 951,
    "Ġdown": 952,
    "Ġzyada": 953,
    "Ġgroup": 954,
    "ideo": 955,
    "bum": 956,
    "Ġmonday": 957,
    "Ġbahar": 958,
    "Ġrec": 959,
    "Ġfl": 960,
    "Ġ12": 961,
    "Ġevent": 962,
    "lla": 963,
    "ĠV": 964,
    "Ġmy": 965,
    "Ġbo": 966,
    "Ġbat": 967,
    "Ġkiya": 968,
    "Ġcurrent": 969,
    "ord": 970,
    "Ġex": 971,
    "ght": 972,
    "Ġrahi": 973,
    "ue": 974,
    "ville": 975,
    "Ġreset": 976,
    "esti": 977,
    "Ġof": 978,
    "Ġvideo": 979,
    "Ġbee": 980,
    "Timer": 981,
    "vi": 982,
    "Ġumb": 983,
    "Ġbarish": 984,
    "meri": 985,
    "ming": 986,
    "rella": 987,
    "Ġumbrella": 988,
    "Har": 989,
    "current": 990,
    "du": 991,
    "tle": 992,
    "Ġsh": 993,
    "Ġpay": 994,
    "Ġalbum": 995,
    "ĠThursday": 996,
    "Ġroute": 997,
    "Ġdikh": 998,
    "Ġstart": 999,
    "Ġdilaen": 1000,
    "Ġsnow": 1001,
    "Ġlagaye": 1002,
    "Ġraaste": 1003,
    "Ġmiles": 1004,
    "Alarm": 1005,
    "Ġsp": 1006,
    "Ġbare": 1007,
    "ore": 1008,
    "Ġbajaye": 1009,
    "Ġgame": 1010,
    "ĠMonday": 1011,
    "Ġconstruction": 1012,
    "Mai": 1013,
    "ko": 1014,
    "last": 1015,
    "Ġbaahar": 1016,
    "hen": 1017,
    "orm": 1018,
    "tify": 1019,
    "Ġkonse": 1020,
    "Ġbeech": 1021,
    "Saturday": 1022,
    "hicago": 1023,
    "qt": 1024,
    "Ġi": 1025,
    "Ġma": 1026,
    "Ġsend": 1027,
    "adi": 1028,
    "Ġwaqt": 1029,
    "estival": 1030,
    "15": 1031,
    "Friday": 1032,
    "ma": 1033,
    "pp": 1034,
    "ale": 1035,
    "Ġclass": 1036,
    "ties": 1037,
    "Ġdoctor": 1038,
    "ĠSunday": 1039,
    "Ġconcert": 1040,
    "Ġthand": 1041,
    "Ġpade": 1042,
    "ac": 1043,
    "tra": 1044,
    "Ġkha": 1045,
    "Ġso": 1046,
    "Ġlist": 1047,
    "rection": 1048,
    "Ġapne": 1049,
    "Ġstop": 1050,
    "Ġnikalne": 1051,
    "potify": 1052,
    "Ġdekhne": 1053,
    "Ġpohochne": 1054,
    "lor": 1055,
    "os": 1056,
    "ug": 1057,
    "Ġare": 1058,
    "Ġaane": 1059,
    "Ġras": 1060,
    "ash": 1061,
    "Ġweekly": 1062,
    "Ġdeg": 1063,
    "Ġhaftey": 1064,
    "tern": 1065,
    "Ġday": 1066,
    "ice": 1067,
    "Ġlate": 1068,
    "ĠChristmas": 1069,
    "ĠWednesday": 1070,
    "chedu": 1071,
    "Ġresume": 1072,
    "chedule": 1073,
    "New": 1074,
    "out": 1075,
    "Ġ00": 1076,
    "Ġhi": 1077,
    "Ġaa": 1078,
    "Ġdel": 1079,
    "Ġkaun": 1080,
    "hoda": 1081,
    "inter": 1082,
    "Ġchee": 1083,
    "Ġcheck": 1084,
    "Ġbataiye": 1085,
    "Ġpadegi": 1086,
    "aw": 1087,
    "iam": 1088,
    "mo": 1089,
    "song": 1090,
    "ving": 1091,
    "ĠU": 1092,
    "ess": 1093,
    "Ġyaha": 1094,
    "ĠCity": 1095,
    "Ġdirection": 1096,
    "Meri": 1097,
    "andora": 1098,
    "Ġbadle": 1099,
    "Ġsunday": 1100,
    "Ġgaya": 1101,
    "Ġyou": 1102,
    "20": 1103,
    "hn": 1104,
    "Ġacha": 1105,
    "Ġdh": 1106,
    "Ġhot": 1107,
    "ance": 1108,
    "ston": 1109,
    "Agle": 1110,
    "Ġkonsa": 1111,
    "Ġcheeze": 1112,
    "Monday": 1113,
    "ven": 1114,
    "Ġ\\": 1115,
    "Ġschool": 1116,
    "Ġfestival": 1117,
    "Ġjack": 1118,
    "reet": 1119,
    "Ġyad": 1120,
    "ĠSt": 1121,
    "ĠSan": 1122,
    "ack": 1123,
    "music": 1124,
    "Ġcle": 1125,
    "ise": 1126,
    "Ġdog": 1127,
    "Ġrok": 1128,
    "Ġcount": 1129,
    "lando": 1130,
    "ike": 1131,
    "qu": 1132,
    "tlan": 1133,
    "work": 1134,
    "Ġkho": 1135,
    "Ġan": 1136,
    "Ġlunch": 1137,
    "ham": 1138,
    "sabhi": 1139,
    "aher": 1140,
    "Ġchan": 1141,
    "Ġreport": 1142,
    "Ġgaaney": 1143,
    "ix": 1144,
    "pm": 1145,
    "play": 1146,
    "Ġaf": 1147,
    "Ġdai": 1148,
    "Ġdis": 1149,
    "ily": 1150,
    "Ġhue": 1151,
    "Ġbanao": 1152,
    "Ġmilne": 1153,
    "ugust": 1154,
    "iami": 1155,
    "Ġschedule": 1156,
    "Ġlen": 1157,
    "ina": 1158,
    "les": 1159,
    "ater": 1160,
    "ical": 1161,
    "Ġtimers": 1162,
    "rip": 1163,
    "Ġnikalna": 1164,
    "Ġjacket": 1165,
    "ia": 1166,
    "mm": 1167,
    "une": 1168,
    "Ġhon": 1169,
    "ney": 1170,
    "Ġwake": 1171,
    "Ġparties": 1172,
    "Ġfriday": 1173,
    "Ġjaa": 1174,
    "Ġdijiye": 1175,
    "row": 1176,
    "Ġroke": 1177,
    "Ġlambi": 1178,
    "ternoon": 1179,
    "Ġdirections": 1180,
    "Jo": 1181,
    "ball": 1182,
    "ep": 1183,
    "pr": 1184,
    "rand": 1185,
    "ard": 1186,
    "Ġsw": 1187,
    "Ġrak": 1188,
    "Ġbajne": 1189,
    "Ġgir": 1190,
    "rid": 1191,
    "oop": 1192,
    "apas": 1193,
    "ĠPM": 1194,
    "Ġlagegi": 1195,
    "tions": 1196,
    "Ġvo": 1197,
    "Ġagar": 1198,
    "Ġdriving": 1199,
    "ĠJo": 1200,
    "agley": 1201,
    "Ġraasta": 1202,
    "Ġaccidents": 1203,
    "Ġdelay": 1204,
    "Ġafternoon": 1205,
    "Tuesday": 1206,
    "aur": 1207,
    "age": 1208,
    "ey": 1209,
    "ite": 1210,
    "vo": 1211,
    "Ġshe": 1212,
    "ere": 1213,
    "hil": 1214,
    "amp": 1215,
    "Ġjaunga": 1216,
    "Ġtez": 1217,
    "Mera": 1218,
    "Ġnaam": 1219,
    "Ġ90": 1220,
    "Ġdopaher": 1221,
    "allas": 1222,
    "eattle": 1223,
    "Ġkhare": 1224,
    "Ġpahuchne": 1225,
    "Ġloc": 1226,
    "Ġdowntown": 1227,
    "adio": 1228,
    "Abhi": 1229,
    "eg": 1230,
    "ext": 1231,
    "wo": 1232,
    "Ġsaturday": 1233,
    "Ġham": 1234,
    "Ġdent": 1235,
    "Ġrain": 1236,
    "isco": 1237,
    "Ġhua": 1238,
    "Ġsaath": 1239,
    "Ġhighway": 1240,
    "im": 1241,
    "ny": 1242,
    "uff": 1243,
    "zz": 1244,
    "Ġsad": 1245,
    "Ġhat": 1246,
    "Ġlow": 1247,
    "Ġbha": 1248,
    "Ġtuesday": 1249,
    "ening": 1250,
    "Ġkam": 1251,
    "orts": 1252,
    "Ġbaja": 1253,
    "time": 1254,
    "Ġchat": 1255,
    "riend": 1256,
    "ida": 1257,
    "Ġnight": 1258,
    "Ġmom": 1259,
    "Ġagley": 1260,
    "ift": 1261,
    "Ġarea": 1262,
    "Ġkhoj": 1263,
    "br": 1264,
    "ive": 1265,
    "pe": 1266,
    "ranc": 1267,
    "Ġlek": 1268,
    "Ġbus": 1269,
    "ted": 1270,
    "Ġremo": 1271,
    "Ġheav": 1272,
    "amily": 1273,
    "Ġfree": 1274,
    "Ġwed": 1275,
    "Ġlane": 1276,
    "Ġmessages": 1277,
    "Ġhuwe": 1278,
    "ect": 1279,
    "old": 1280,
    "ĠBo": 1281,
    "Ġ40": 1282,
    "Ġpass": 1283,
    "Ġgrocer": 1284,
    "tlanta": 1285,
    "Ġdentist": 1286,
    "rancisco": 1287,
    "Ġremove": 1288,
    "45": 1289,
    "ger": 1290,
    "ren": 1291,
    "Ġpr": 1292,
    "hat": 1293,
    "ani": 1294,
    "ington": 1295,
    "Ġjaga": 1296,
    "Ġlaga": 1297,
    "Ġsaarey": 1298,
    "Ġstation": 1299,
    "outh": 1300,
    "Ġkharid": 1301,
    "Ġheavy": 1302,
    "Wednesday": 1303,
    "ace": 1304,
    "ques": 1305,
    "Ġor": 1306,
    "Ġback": 1307,
    "Ġcall": 1308,
    "orrow": 1309,
    "ich": 1310,
    "ado": 1311,
    "Ġweeks": 1312,
    "oof": 1313,
    "Ġnika": 1314,
    "Ġnaye": 1315,
    "ĠPark": 1316,
    "Ġstreet": 1317,
    "Ġcondi": 1318,
    "Ġcomm": 1319,
    "Ġbeach": 1320,
    "ortland": 1321,
    "Ġworkout": 1322,
    "Ġdekh": 1323,
    "Ġthis": 1324,
    "ĠOr": 1325,
    "Ġhours": 1326,
    "Ġcountry": 1327,
    "Ġdaily": 1328,
    "Ġlena": 1329,
    "Ġlocation": 1330,
    "Ġnikaal": 1331,
    "Next": 1332,
    "Thursday": 1333,
    "eed": 1334,
    "mom": 1335,
    "port": 1336,
    "ss": 1337,
    "son": 1338,
    "the": 1339,
    "vie": 1340,
    "Ġthursday": 1341,
    "Ġthoda": 1342,
    "Ġclo": 1343,
    "Ġwapas": 1344,
    "Ġhota": 1345,
    "Ġjal": 1346,
    "Ġsaare": 1347,
    "Ġrock": 1348,
    "ĠBe": 1349,
    "Ġoff": 1350,
    "Ġbhejne": 1351,
    "Ġgaana": 1352,
    "vers": 1353,
    "Ġlagta": 1354,
    "Ġuske": 1355,
    "ĠRo": 1356,
    "Ġboliye": 1357,
    "Ġdoori": 1358,
    "Ġflight": 1359,
    "Ġkhareedne": 1360,
    "ci": 1361,
    "go": 1362,
    "ll": 1363,
    "our": 1364,
    "Ġtr": 1365,
    "Ġtrip": 1366,
    "Ġplan": 1367,
    "Ġbaar": 1368,
    "Ġdate": 1369,
    "Ġcity": 1370,
    "Ġreques": 1371,
    "ajah": 1372,
    "tate": 1373,
    "Ġfood": 1374,
    "Ġfriend": 1375,
    "ffice": 1376,
    "down": 1377,
    "Ġevening": 1378,
    "Ġ201": 1379,
    "Ġshows": 1380,
    "Ġaccident": 1381,
    "lorida": 1382,
    "Ġraste": 1383,
    "Chicago": 1384,
    "kit": 1385,
    "ous": 1386,
    "ud": 1387,
    "wara": 1388,
    "Ġut": 1389,
    "Ġbill": 1390,
    "Ġper": 1391,
    "Ġpho": 1392,
    "Ġdwara": 1393,
    "heit": 1394,
    "Ġwin": 1395,
    "Ġwajah": 1396,
    "Ġhoj": 1397,
    "tam": 1398,
    "Ġfro": 1399,
    "reew": 1400,
    "elsi": 1401,
    "Ġtom": 1402,
    "ĠChicago": 1403,
    "Ġapp": 1404,
    "Ġapna": 1405,
    "ece": 1406,
    "ĠAn": 1407,
    "Ġ45": 1408,
    "Ġagla": 1409,
    "ondon": 1410,
    "Ġchalu": 1411,
    "Ġkharab": 1412,
    "Ġhumid": 1413,
    "Ġexp": 1414,
    "traffic": 1415,
    "Ġlatest": 1416,
    "Ġkharidne": 1417,
    "Ġcommute": 1418,
    "reeway": 1419,
    "elsius": 1420,
    "Christmas": 1421,
    "dic": 1422,
    "ee": 1423,
    "ire": 1424,
    "sha": 1425,
    "vel": 1426,
    "Ġsarey": 1427,
    "ery": 1428,
    "Ġab": 1429,
    "Ġpre": 1430,
    "Ġbach": 1431,
    "iss": 1432,
    "ans": 1433,
    "ahren": 1434,
    "get": 1435,
    "Ġjaye": 1436,
    "Ġfav": 1437,
    "ings": 1438,
    "enter": 1439,
    "rees": 1440,
    "Ġwalk": 1441,
    "ĠSeattle": 1442,
    "Ġ25": 1443,
    "Ġoffice": 1444,
    "mail": 1445,
    "Ġmovie": 1446,
    "ngeles": 1447,
    "liday": 1448,
    "Ġwaha": 1449,
    "Ġroads": 1450,
    "ĠVeg": 1451,
    "Ġkhatam": 1452,
    "Ġdegree": 1453,
    "Ġdelays": 1454,
    "Ġbhaari": 1455,
    "Ġconditions": 1456,
    "Ġrequests": 1457,
    "Ġtomorrow": 1458,
    "ecember": 1459,
    "ahrenheit": 1460,
    "Bo": 1461,
    "Sunday": 1462,
    "by": 1463,
    "ds": 1464,
    "ld": 1465,
    "Ġar": 1466,
    "Ġavo": 1467,
    "Ġkeh": 1468,
    "Ġbre": 1469,
    "ink": 1470,
    "Ġdad": 1471,
    "Ġrun": 1472,
    "ont": 1473,
    "ence": 1474,
    "Ġrest": 1475,
    "Ġkach": 1476,
    "aki": 1477,
    "Ġgo": 1478,
    "Ġgaye": 1479,
    "Ġjis": 1480,
    "ush": 1481,
    "Ġjab": 1482,
    "reen": 1483,
    "Ġlana": 1484,
    "Ġemail": 1485,
    "dop": 1486,
    "Ġpehen": 1487,
    "Ġdegrees": 1488,
    "John": 1489,
    "ridge": 1490,
    "ĠVegas": 1491,
    "Ġavoid": 1492,
    "ba": 1493,
    "ex": 1494,
    "ith": 1495,
    "radio": 1496,
    "usam": 1497,
    "uche": 1498,
    "Ġair": 1499,
    "Ġbhar": 1500,
    "Ġta": 1501,
    "Ġtoof": 1502,
    "Ġpro": 1503,
    "yaha": 1504,
    "Ġbache": 1505,
    "Ġchi": 1506,
    "ason": 1507,
    "Ġwill": 1508,
    "enix": 1509,
    "ahi": 1510,
    "Ġfamily": 1511,
    "Ġfreeway": 1512,
    "night": 1513,
    "Ġkarenge": 1514,
    "Ġtop": 1515,
    "hoenix": 1516,
    "Ġmaine": 1517,
    "ĠAl": 1518,
    "ĠAtlanta": 1519,
    "Ġmousam": 1520,
    "Ġbanayen": 1521,
    "subha": 1522,
    "ustin": 1523,
    "week": 1524,
    "Ġlamba": 1525,
    "Ġfestivals": 1526,
    "Ġchance": 1527,
    "Ġhamare": 1528,
    "book": 1529,
    "den": 1530,
    "ear": 1531,
    "ghar": 1532,
    "hut": 1533,
    "ies": 1534,
    "py": 1535,
    "sun": 1536,
    "tic": 1537,
    "udy": 1538,
    "zed": 1539,
    "Ġpuche": 1540,
    "Ġban": 1541,
    "Ġdur": 1542,
    "Ġru": 1543,
    "ally": 1544,
    "asak": 1545,
    "ayi": 1546,
    "saarey": 1547,
    "orite": 1548,
    "Ġpark": 1549,
    "ade": 1550,
    "Ġchats": 1551,
    "Ġmail": 1552,
    "Ġkaisi": 1553,
    "ĠCo": 1554,
    "ets": 1555,
    "eter": 1556,
    "Ġapni": 1557,
    "ĠFrancisco": 1558,
    "Ġbadlo": 1559,
    "Ġbanaen": 1560,
    "Ġpahunchunga": 1561,
    "Ġbatayen": 1562,
    "Ġno": 1563,
    "Ġusey": 1564,
    "Ġlike": 1565,
    "Ġmazed": 1566,
    "Ġrasta": 1567,
    "Ġsadak": 1568,
    "Ġhojaye": 1569,
    "Ġfrom": 1570,
    "shaam": 1571,
    "aha": 1572,
    "ita": 1573,
    "low": 1574,
    "per": 1575,
    "uly": 1576,
    "Ġinter": 1577,
    "Ġaaye": 1578,
    "ail": 1579,
    "nesday": 1580,
    "Ġdist": 1581,
    "len": 1582,
    "urn": 1583,
    "ica": 1584,
    "Ġholiday": 1585,
    "Ġtoday": 1586,
    "Ġsaal": 1587,
    "Ġsaaf": 1588,
    "ĠCon": 1589,
    "hank": 1590,
    "maine": 1591,
    "urring": 1592,
    "verage": 1593,
    "umbs": 1594,
    "Ġpadne": 1595,
    "Ġrecord": 1596,
    "Ġshorts": 1597,
    "Ġkaunse": 1598,
    "awa": 1599,
    "Ġclear": 1600,
    "Ġdisplay": 1601,
    "Ġjaaon": 1602,
    "uffle": 1603,
    "Ġwednesday": 1604,
    "Ġjaldi": 1605,
    "ouston": 1606,
    "Ġtoofan": 1607,
    "Ek": 1608,
    "bo": 1609,
    "ft": 1610,
    "ja": 1611,
    "mit": 1612,
    "tte": 1613,
    "wa": 1614,
    "Ġ!": 1615,
    "Ġu": 1616,
    "Ġart": 1617,
    "Ġget": 1618,
    "Ġher": 1619,
    "Ġhor": 1620,
    "Ġaverage": 1621,
    "Ġtar": 1622,
    "Ġbak": 1623,
    "Ġbahut": 1624,
    "Ġchristmas": 1625,
    "Ġcold": 1626,
    "test": 1627,
    "aylor": 1628,
    "ley": 1629,
    "Ġwinter": 1630,
    "ant": 1631,
    "Ġjan": 1632,
    "essage": 1633,
    "ther": 1634,
    "Ġsakti": 1635,
    "ister": 1636,
    "Ġevery": 1637,
    "Ġop": 1638,
    "Ġout": 1639,
    "Ġupar": 1640,
    "Ġbhejen": 1641,
    "Ġnear": 1642,
    "Ġcoat": 1643,
    "Ġcome": 1644,
    "Ġvet": 1645,
    "very": 1646,
    "count": 1647,
    "Ġunhe": 1648,
    "pping": 1649,
    "Ġdhoop": 1650,
    "Ġclean": 1651,
    "Ġgirne": 1652,
    "brary": 1653,
    "ĠBeach": 1654,
    "Ġutha": 1655,
    "Ġfavorite": 1656,
    "Ġrestart": 1657,
    "Ġkachra": 1658,
    "LA": 1659,
    "Sabhi": 1660,
    "cy": 1661,
    "form": 1662,
    "gg": 1663,
    "gan": 1664,
    "rise": 1665,
    "wood": 1666,
    "ym": 1667,
    "Ġ;": 1668,
    "Ġend": 1669,
    "Ġord": 1670,
    "Ġkardi": 1671,
    "Ġkarden": 1672,
    "Ġbh": 1673,
    "Ġbook": 1674,
    "Ġpic": 1675,
    "nes": 1676,
    "alm": 1677,
    "Ġcho": 1678,
    "ons": 1679,
    "Ġwar": 1680,
    "Ġwater": 1681,
    "ure": 1682,
    "enger": 1683,
    "Ġrehne": 1684,
    "Ġhome": 1685,
    "Ġhouse": 1686,
    "Ġjam": 1687,
    "Ġjaan": 1688,
    "Ġlaane": 1689,
    "Ġweekday": 1690,
    "Ġdilao": 1691,
    "Ġdene": 1692,
    "Ġkaise": 1693,
    "ĠCol": 1694,
    "ĠCelsius": 1695,
    "appy": 1696,
    "Ġdiya": 1697,
    "ĠAugust": 1698,
    "ĠAngeles": 1699,
    "ĠPortland": 1700,
    "Ġstore": 1701,
    "Ġone": 1702,
    "ĠDallas": 1703,
    "Ġghanta": 1704,
    "coming": 1705,
    "Ġshopping": 1706,
    "undry": 1707,
    "Ġshuffle": 1708,
    "track": 1709,
    "ashington": 1710,
    "Ġbadlein": 1711,
    "ampa": 1712,
    "Ġpres": 1713,
    "ichla": 1714,
    "Ġhumidity": 1715,
    "Ġdistance": 1716,
    "Ġorder": 1717,
    "August": 1718,
    "Pandora": 1719,
    "San": 1720,
    "YC": 1721,
    "\\\\": 1722,
    "bor": 1723,
    "ces": 1724,
    "col": 1725,
    "ling": 1726,
    "lub": 1727,
    "ĠIs": 1728,
    "ars": 1729,
    "Ġmat": 1730,
    "Ġmid": 1731,
    "Ġmark": 1732,
    "Ġha": 1733,
    "Ġhal": 1734,
    "Ġlight": 1735,
    "Ġtick": 1736,
    "Ġbaaki": 1737,
    "heart": 1738,
    "tember": 1739,
    "ico": 1740,
    "ady": 1741,
    "raha": 1742,
    "Ġfive": 1743,
    "Ġwest": 1744,
    "ffee": 1745,
    "Ġjaate": 1746,
    "ĠMiami": 1747,
    "roit": 1748,
    "Ġnae": 1749,
    "ummer": 1750,
    "ĠFahrenheit": 1751,
    "ĠAr": 1752,
    "ĠBr": 1753,
    "Ġcomp": 1754,
    "Ġmodi": 1755,
    "Ġtexts": 1756,
    "Ġnoon": 1757,
    "Ġacti": 1758,
    "Ġandar": 1759,
    "Ġchu": 1760,
    "vies": 1761,
    "Ġclassical": 1762,
    "ackson": 1763,
    "Ġgrocery": 1764,
    "ĠOrlando": 1765,
    "Ġhorahi": 1766,
    "Ġmodify": 1767,
    "Spotify": 1768,
    "Us": 1769,
    "band": 1770,
    "bara": 1771,
    "ele": 1772,
    "hum": 1773,
    "kar": 1774,
    "ler": 1775,
    "rd": 1776,
    "ran": 1777,
    "thoda": 1778,
    "uy": 1779,
    "Ġum": 1780,
    "Ġky": 1781,
    "Ġmuj": 1782,
    "Ġsan": 1783,
    "Ġhit": 1784,
    "Ġkarte": 1785,
    "Ġkarta": 1786,
    "Ġten": 1787,
    "Ġtwo": 1788,
    "nel": 1789,
    "hee": 1790,
    "Ġkaho": 1791,
    "orth": 1792,
    "ada": 1793,
    "Ġgas": 1794,
    "Ġgift": 1795,
    "Ġfin": 1796,
    "nivers": 1797,
    "Ġsubmit": 1798,
    "ĠMo": 1799,
    "ĠMay": 1800,
    "ected": 1801,
    "irf": 1802,
    "Ġ80": 1803,
    "Ġupcoming": 1804,
    "ights": 1805,
    "Ġleta": 1806,
    "Ġpop": 1807,
    "Ġmovies": 1808,
    "Ġreply": 1809,
    "Ġuski": 1810,
    "ĠYear": 1811,
    "araha": 1812,
    "Ġpuchiye": 1813,
    "under": 1814,
    "Ġyork": 1815,
    "Ġchut": 1816,
    "Ġrecurring": 1817,
    "Ġkaunsa": 1818,
    "Ġrokein": 1819,
    "Ġlekar": 1820,
    "Ġjagao": 1821,
    "acebook": 1822,
    "Ġfriendly": 1823,
    "Ġphone": 1824,
    "Ġwindy": 1825,
    "dopahar": 1826,
    "Ġairport": 1827,
    "Ġbhari": 1828,
    "Ġbakhi": 1829,
    "Ġwarning": 1830,
    "Ġtickets": 1831,
    "heartradio": 1832,
    "Florida": 1833,
    "Ro": 1834,
    "Sub": 1835,
    "aan": 1836,
    "act": 1837,
    "io": 1838,
    "ian": 1839,
    "lv": 1840,
    "mid": 1841,
    "rai": 1842,
    "school": 1843,
    "tuesday": 1844,
    "uck": 1845,
    "ĠZ": 1846,
    "Ġif": 1847,
    "Ġqu": 1848,
    "Ġkh": 1849,
    "arch": 1850,
    "Ġmall": 1851,
    "Ġsister": 1852,
    "Ġhora": 1853,
    "Ġbest": 1854,
    "air": 1855,
    "Ġthi": 1856,
    "Ġthank": 1857,
    "Ġmedic": 1858,
    "Ġbac": 1859,
    "Ġkia": 1860,
    "Ġcan": 1861,
    "onga": 1862,
    "orado": 1863,
    "isney": 1864,
    "minder": 1865,
    "nia": 1866,
    "Ġjana": 1867,
    "reg": 1868,
    "Ġ18": 1869,
    "Ġlaundry": 1870,
    "ĠSp": 1871,
    "Ġsab": 1872,
    "etroit": 1873,
    "ster": 1874,
    "rop": 1875,
    "aul": 1876,
    "Ġdino": 1877,
    "ĠDie": 1878,
    "mento": 1879,
    "Ġmove": 1880,
    "lock": 1881,
    "ations": 1882,
    "cot": 1883,
    "Ġphirse": 1884,
    "ouis": 1885,
    "Ġlik": 1886,
    "Ġlibrary": 1887,
    "ull": 1888,
    "Ġflood": 1889,
    "Ġspeed": 1890,
    "Ġsound": 1891,
    "awai": 1892,
    "essenger": 1893,
    "Ġhoni": 1894,
    "randma": 1895,
    "Ġsweat": 1896,
    "Ġrakhe": 1897,
    "Ġkhoje": 1898,
    "Ġgroceries": 1899,
    "downtown": 1900,
    "Ġexpected": 1901,
    "Ġchize": 1902,
    "asakte": 1903,
    "Ġopen": 1904,
    "Ġcleaning": 1905,
    "ĠDiego": 1906,
    "'s": 1907,
    "AR": 1908,
    "Kit": 1909,
    "We": 1910,
    "aar": 1911,
    "ble": 1912,
    "bur": 1913,
    "cle": 1914,
    "din": 1915,
    "eb": 1916,
    "fer": 1917,
    "iel": 1918,
    "od": 1919,
    "pandora": 1920,
    "ral": 1921,
    "tan": 1922,
    "ual": 1923,
    "Ġ&": 1924,
    "Ġsouth": 1925,
    "Ġslow": 1926,
    "Ġsummer": 1927,
    "Ġloop": 1928,
    "Ġtor": 1929,
    "Ġtum": 1930,
    "Ġdr": 1931,
    "Ġdus": 1932,
    "Ġhair": 1933,
    "Ġkids": 1934,
    "Ġclub": 1935,
    "onto": 1936,
    "tend": 1937,
    "Ġreact": 1938,
    "Ġkahan": 1939,
    "ornia": 1940,
    "ichi": 1941,
    "Ġhote": 1942,
    "Ġgire": 1943,
    "hia": 1944,
    "ramento": 1945,
    "Ġjata": 1946,
    "usin": 1947,
    "Ġjaayen": 1948,
    "Ġjaoon": 1949,
    "harlo": 1950,
    "ĠSpotify": 1951,
    "sey": 1952,
    "areek": 1953,
    "aper": 1954,
    "aster": 1955,
    "ĠMad": 1956,
    "ĠMusic": 1957,
    "Ġpack": 1958,
    "ĠThe": 1959,
    "Ġzada": 1960,
    "ĠDecember": 1961,
    "Ġjob": 1962,
    "Ġyear": 1963,
    "umber": 1964,
    "Ġnayi": 1965,
    "Ġbadalne": 1966,
    "ills": 1967,
    "ĠEve": 1968,
    "Ġcard": 1969,
    "view": 1970,
    "hilad": 1971,
    "ĠBoston": 1972,
    "Ġorlando": 1973,
    "Ġdekhna": 1974,
    "Ġ2018": 1975,
    "kitna": 1976,
    "Ġbreak": 1977,
    "weekend": 1978,
    "Ġkardijiye": 1979,
    "harlotte": 1980,
    "ER": 1981,
    "Los": 1982,
    "Tra": 1983,
    "cal": 1984,
    "ccer": 1985,
    "eor": 1986,
    "here": 1987,
    "ky": 1988,
    "mi": 1989,
    "my": 1990,
    "nt": 1991,
    "og": 1992,
    "phia": 1993,
    "sarey": 1994,
    "sham": 1995,
    "tal": 1996,
    "zar": 1997,
    "Ġ/": 1998,
    "aris": 1999,
    "ardi": 2000,
    "Ġsc": 2001,
    "Ġspotify": 2002,
    "Ġhus": 2003,
    "Ġhappy": 2004,
    "Ġbr": 2005,
    "Ġby": 2006,
    "Ġbridge": 2007,
    "Ġbuy": 2008,
    "Ġtast": 2009,
    "Ġtree": 2010,
    "Ġturn": 2011,
    "Ġdry": 2012,
    "ona": 2013,
    "leep": 2014,
    "atch": 2015,
    "Ġwith": 2016,
    "saare": 2017,
    "sabse": 2018,
    "iche": 2019,
    "Ġhoti": 2020,
    "anch": 2021,
    "Ġgood": 2022,
    "raat": 2023,
    "chon": 2024,
    "Ġfun": 2025,
    "Ġfeed": 2026,
    "Ġdoh": 2027,
    "Ġdobara": 2028,
    "Ġjaana": 2029,
    "ell": 2030,
    "elphia": 2031,
    "oot": 2032,
    "Ġdilane": 2033,
    "Ġtown": 2034,
    "ĠSpr": 2035,
    "Ġhui": 2036,
    "ĠCar": 2037,
    "ĠCenter": 2038,
    "itation": 2039,
    "hurch": 2040,
    "Ġise": 2041,
    "Ġiste": 2042,
    "storm": 2043,
    "kee": 2044,
    "Ġroz": 2045,
    "ated": 2046,
    "Ġsamai": 2047,
    "Ġstorm": 2048,
    "Ġoil": 2049,
    "Ġover": 2050,
    "Ġpeh": 2051,
    "Ġ95": 2052,
    "Ġcoming": 2053,
    "ĠDay": 2054,
    "ĠDisney": 2055,
    "certs": 2056,
    "ĠWashington": 2057,
    "ĠHar": 2058,
    "ĠHol": 2059,
    "ĠLondon": 2060,
    "ĠJuly": 2061,
    "Ġchalaye": 2062,
    "hris": 2063,
    "Ġmonthly": 2064,
    "Ġfirse": 2065,
    "Ġpayment": 2066,
    "Ġthanda": 2067,
    "Ġdhund": 2068,
    "Ġtrain": 2069,
    "Ġmazedaar": 2070,
    "Ġumme": 2071,
    "niversary": 2072,
    "Ġhoraha": 2073,
    "ield": 2074,
    "hiladelphia": 2075,
    "Ġhusband": 2076,
    "90": 2077,
    "Dallas": 2078,
    "Houston": 2079,
    "Kuch": 2080,
    "London": 2081,
    "MS": 2082,
    "Mom": 2083,
    "Miami": 2084,
    "Or": 2085,
    "ding": 2086,
    "every": 2087,
    "her": 2088,
    "hse": 2089,
    "lle": 2090,
    "ments": 2091,
    "ove": 2092,
    "ph": 2093,
    "pic": 2094,
    "pichla": 2095,
    "ric": 2096,
    "saturday": 2097,
    "udi": 2098,
    "wy": 2099,
    "wau": 2100,
    "ys": 2101,
    "ĠKya": 2102,
    "Ġit": 2103,
    "Ġhawa": 2104,
    "Ġas": 2105,
    "Ġache": 2106,
    "Ġkesi": 2107,
    "Ġlights": 2108,
    "Ġbed": 2109,
    "Ġbike": 2110,
    "Ġbina": 2111,
    "Ġtareek": 2112,
    "Ġpra": 2113,
    "Ġbas": 2114,
    "Ġbaat": 2115,
    "Ġrad": 2116,
    "ali": 2117,
    "alif": 2118,
    "ony": 2119,
    "Ġway": 2120,
    "Ġwhat": 2121,
    "enge": 2122,
    "nado": 2123,
    "san": 2124,
    "orld": 2125,
    "ants": 2126,
    "Ġgr": 2127,
    "Ġgu": 2128,
    "Ġgym": 2129,
    "hie": 2130,
    "Ġrap": 2131,
    "Ġkaroge": 2132,
    "Ġchahie": 2133,
    "Ġjag": 2134,
    "Ġjazz": 2135,
    "read": 2136,
    "elci": 2137,
    "hot": 2138,
    "Ġhuye": 2139,
    "dom": 2140,
    "ĠMan": 2141,
    "Ġnik": 2142,
    "ĠTi": 2143,
    "Ġroko": 2144,
    "Ġbataen": 2145,
    "useum": 2146,
    "Ġbadha": 2147,
    "Ġcousin": 2148,
    "Ġleja": 2149,
    "inters": 2150,
    "Ġbanane": 2151,
    "alarms": 2152,
    "ĠLas": 2153,
    "Ġpost": 2154,
    "Ġuska": 2155,
    "Ġlive": 2156,
    "Ġkarsakta": 2157,
    "Ġthunder": 2158,
    "Ġalerts": 2159,
    "Ġbohot": 2160,
    "Ġdikhaiye": 2161,
    "Ġsoccer": 2162,
    "ĠStreet": 2163,
    "Ġdogs": 2164,
    "Ġchances": 2165,
    "Ġhona": 2166,
    "Ġhonge": 2167,
    "eptember": 2168,
    "Ġhataye": 2169,
    "Ġbusy": 2170,
    "Ġlagao": 2171,
    "Ġplans": 2172,
    "Ġjayega": 2173,
    "Ġrunning": 2174,
    "baahar": 2175,
    "ĠConcerts": 2176,
    "Ġjaanne": 2177,
    "Ġchuka": 2178,
    "Ġmujhse": 2179,
    "Subah": 2180,
    "Ġsweater": 2181,
    "ference": 2182,
    "Ġtornado": 2183,
    "Ġdohra": 2184,
    "Ġummeed": 2185,
    "Orlando": 2186,
    "waukee": 2187,
    "Ġpract": 2188,
    "elcius": 2189,
    "interstate": 2190,
    "An": 2191,
    "App": 2192,
    "June": 2193,
    "Seattle": 2194,
    "Scot": 2195,
    "Tom": 2196,
    "Ye": 2197,
    "be": 2198,
    "gn": 2199,
    "ip": 2200,
    "isa": 2201,
    "ivers": 2202,
    "ject": 2203,
    "ket": 2204,
    "lin": 2205,
    "ot": 2206,
    "one": 2207,
    "par": 2208,
    "ting": 2209,
    "uary": 2210,
    "Ġman": 2211,
    "Ġsal": 2212,
    "erv": 2213,
    "Ġkarunga": 2214,
    "Ġkarde": 2215,
    "Ġll": 2216,
    "Ġton": 2217,
    "Ġtab": 2218,
    "Ġpaper": 2219,
    "Ġdue": 2220,
    "Ġradio": 2221,
    "Ġrush": 2222,
    "Ġseason": 2223,
    "Ġcro": 2224,
    "Ġcook": 2225,
    "Ġchurch": 2226,
    "onse": 2227,
    "once": 2228,
    "ten": 2229,
    "ati": 2230,
    "Ġwine": 2231,
    "enny": 2232,
    "Ġread": 2233,
    "naya": 2234,
    "oronto": 2235,
    "Ġbajayen": 2236,
    "Ġhop": 2237,
    "Ġgar": 2238,
    "illi": 2239,
    "ames": 2240,
    "Ġfrancisco": 2241,
    "Ġmins": 2242,
    "Ġtravel": 2243,
    "Ġjau": 2244,
    "Ġ17": 2245,
    "Ġtake": 2246,
    "oom": 2247,
    "Ġtoll": 2248,
    "ĠSte": 2249,
    "Ġdet": 2250,
    "Ġmain": 2251,
    "Ġteen": 2252,
    "Ġteam": 2253,
    "itch": 2254,
    "ghts": 2255,
    "ĠAM": 2256,
    "ĠPhoenix": 2257,
    "hanna": 2258,
    "Ġcoffee": 2259,
    "uter": 2260,
    "ĠDetroit": 2261,
    "Ġsunny": 2262,
    "kia": 2263,
    "ĠWest": 2264,
    "ĠHigh": 2265,
    "Ġpasand": 2266,
    "ches": 2267,
    "ĠJackson": 2268,
    "icken": 2269,
    "tonio": 2270,
    "Ġbaarey": 2271,
    "Ġpuchne": 2272,
    "ters": 2273,
    "Ġinform": 2274,
    "Ġthree": 2275,
    "Ġthumbs": 2276,
    "Ġrahunga": 2277,
    "Ġlove": 2278,
    "Ġshower": 2279,
    "Ġdikhayen": 2280,
    "Ġkahaan": 2281,
    "Ġrecent": 2282,
    "Ġspec": 2283,
    "acramento": 2284,
    "ashville": 2285,
    "Ġbadlen": 2286,
    "Ġwakeup": 2287,
    "arden": 2288,
    "Ġvoice": 2289,
    "ĠJohn": 2290,
    "Ġfreez": 2291,
    "Ġwedding": 2292,
    "Ġphoto": 2293,
    "Boston": 2294,
    "Ġkehta": 2295,
    "Ġartist": 2296,
    "country": 2297,
    "Ġmarket": 2298,
    "awaii": 2299,
    "Ġgiregi": 2300,
    "Ġtasting": 2301,
    "Ġbasket": 2302,
    "alifornia": 2303,
    "Ġlejaane": 2304,
    "Ġpractice": 2305,
    "Ġbasketball": 2306,
    "11": 2307,
    "40": 2308,
    "Atlanta": 2309,
    "Charlotte": 2310,
    "IN": 2311,
    "Lu": 2312,
    "Laur": 2313,
    "Mike": 2314,
    "NYC": 2315,
    "Peter": 2316,
    "Que": 2317,
    "Sa": 2318,
    "Sha": 2319,
    "TE": 2320,
    "aga": 2321,
    "aab": 2322,
    "bha": 2323,
    "class": 2324,
    "em": 2325,
    "emperature": 2326,
    "for": 2327,
    "faul": 2328,
    "gin": 2329,
    "gra": 2330,
    "hiye": 2331,
    "ial": 2332,
    "iver": 2333,
    "iheartradio": 2334,
    "king": 2335,
    "ls": 2336,
    "lic": 2337,
    "line": 2338,
    "man": 2339,
    "mes": 2340,
    "more": 2341,
    "message": 2342,
    "ng": 2343,
    "ober": 2344,
    "ps": 2345,
    "que": 2346,
    "sc": 2347,
    "sh": 2348,
    "sn": 2349,
    "sp": 2350,
    "shi": 2351,
    "vis": 2352,
    "wednesday": 2353,
    "wift": 2354,
    "xico": 2355,
    "yc": 2356,
    "yd": 2357,
    "Ġkhil": 2358,
    "arah": 2359,
    "Ġmiss": 2360,
    "Ġmita": 2361,
    "Ġsup": 2362,
    "Ġsand": 2363,
    "Ġsardi": 2364,
    "Ġhis": 2365,
    "Ġaana": 2366,
    "Ġkaru": 2367,
    "Ġbum": 2368,
    "Ġblock": 2369,
    "aise": 2370,
    "Ġbase": 2371,
    "Ġbaby": 2372,
    "new": 2373,
    "Ġdon": 2374,
    "Ġdho": 2375,
    "Ġdaur": 2376,
    "Ġsee": 2377,
    "Ġcal": 2378,
    "Ġchar": 2379,
    "Ġcake": 2380,
    "urs": 2381,
    "Ġkabhi": 2382,
    "isit": 2383,
    "Ġtimes": 2384,
    "Ġgre": 2385,
    "tage": 2386,
    "raft": 2387,
    "cho": 2388,
    "chunga": 2389,
    "ila": 2390,
    "Ġfoot": 2391,
    "esha": 2392,
    "Ġjaaye": 2393,
    "rive": 2394,
    "ooki": 2395,
    "Ġdilai": 2396,
    "ĠSchool": 2397,
    "ĠSwift": 2398,
    "see": 2399,
    "Ġchahti": 2400,
    "Ġdeto": 2401,
    "thur": 2402,
    "Ġ50": 2403,
    "ĠMujhe": 2404,
    "ĠMall": 2405,
    "ĠMessenger": 2406,
    "Ġisey": 2407,
    "Ġ22": 2408,
    "Ġ28": 2409,
    "Ġpaani": 2410,
    "ĠTh": 2411,
    "ĠTo": 2412,
    "Ġ60": 2413,
    "key": 2414,
    "ĠFestival": 2415,
    "ĠFlorida": 2416,
    "ĠFacebook": 2417,
    "Ġ75": 2418,
    "ĠPandora": 2419,
    "ĠPeter": 2420,
    "ĠPhiladelphia": 2421,
    "Ġstudy": 2422,
    "Ġpahun": 2423,
    "Ġconta": 2424,
    "Ġconference": 2425,
    "ĠBri": 2426,
    "Ġ100": 2427,
    "Ġnikale": 2428,
    "Ġoven": 2429,
    "chat": 2430,
    "Ġsunrise": 2431,
    "Ġvaha": 2432,
    "Ġvisit": 2433,
    "Ġbete": 2434,
    "Ġpahunchna": 2435,
    "ĠHouston": 2436,
    "Ġrahegi": 2437,
    "ĠLA": 2438,
    "ĠLouis": 2439,
    "Ġpoh": 2440,
    "ctober": 2441,
    "ĠGrand": 2442,
    "ĠGaga": 2443,
    "Ġkonsi": 2444,
    "Ġmeetings": 2445,
    "estin": 2446,
    "Ġpohochunga": 2447,
    "Ġchicken": 2448,
    "Ġfirst": 2449,
    "Ġbole": 2450,
    "Ġspr": 2451,
    "koi": 2452,
    "Ġkhana": 2453,
    "Ġhip": 2454,
    "Ġaage": 2455,
    "201": 2456,
    "Ġdhun": 2457,
    "Ġhottest": 2458,
    "Ġ\\\\": 2459,
    "tlantic": 2460,
    "Ġdair": 2461,
    "pril": 2462,
    "Ġlekin": 2463,
    "hattan": 2464,
    "Ġnikaalne": 2465,
    "Ġexpect": 2466,
    "Bob": 2467,
    "Ġkehte": 2468,
    "Ġjisme": 2469,
    "exas": 2470,
    "sunrise": 2471,
    "Ġduri": 2472,
    "Ġruk": 2473,
    "Ġmazedar": 2474,
    "Ġuth": 2475,
    "Ġtarah": 2476,
    "Ġtaraf": 2477,
    "Ġcomedy": 2478,
    "almart": 2479,
    "ĠIsland": 2480,
    "Ġmidnight": 2481,
    "lvd": 2482,
    "regon": 2483,
    "Ġflooding": 2484,
    "burg": 2485,
    "dinner": 2486,
    "ĠSprings": 2487,
    "pichle": 2488,
    "udio": 2489,
    "Ġnikle": 2490,
    "Ġthunderstorm": 2491,
    "Ġdohraye": 2492,
    "fault": 2493,
    "Ġbumper": 2494,
    "Ġbaseball": 2495,
    "Ġfootball": 2496,
    "Be": 2497,
    "Chris": 2498,
    "Do": 2499,
    "December": 2500,
    "Ed": 2501,
    "Jane": 2502,
    "Jack": 2503,
    "Music": 2504,
    "St": 2505,
    "TA": 2506,
    "To": 2507,
    "aat": 2508,
    "ca": 2509,
    "con": 2510,
    "cra": 2511,
    "cel": 2512,
    "dad": 2513,
    "eal": 2514,
    "eminder": 2515,
    "fe": 2516,
    "fall": 2517,
    "ij": 2518,
    "iz": 2519,
    "izz": 2520,
    "kuch": 2521,
    "kara": 2522,
    "lp": 2523,
    "monday": 2524,
    "mond": 2525,
    "nic": 2526,
    "ncle": 2527,
    "pa": 2528,
    "res": 2529,
    "so": 2530,
    "sw": 2531,
    "spotify": 2532,
    "went": 2533,
    "Ġku": 2534,
    "Ġkut": 2535,
    "Ġmiami": 2536,
    "Ġmuseum": 2537,
    "Ġson": 2538,
    "Ġsur": 2539,
    "Ġsale": 2540,
    "Ġhere": 2541,
    "ersey": 2542,
    "Ġkarni": 2543,
    "Ġlong": 2544,
    "Ġland": 2545,
    "Ġbi": 2546,
    "Ġbro": 2547,
    "Ġtai": 2548,
    "Ġtho": 2549,
    "Ġpata": 2550,
    "ines": 2551,
    "inda": 2552,
    "yan": 2553,
    "Ġmene": 2554,
    "Ġmeet": 2555,
    "Ġring": 2556,
    "alley": 2557,
    "Ġcat": 2558,
    "lex": 2559,
    "ating": 2560,
    "attle": 2561,
    "Ġwhere": 2562,
    "urt": 2563,
    "urkey": 2564,
    "ensa": 2565,
    "enver": 2566,
    "Ġkahe": 2567,
    "ory": 2568,
    "Ġbajaiye": 2569,
    "anuary": 2570,
    "Ġparade": 2571,
    "akar": 2572,
    "union": 2573,
    "unty": 2574,
    "taur": 2575,
    "Ġhelp": 2576,
    "ilwaukee": 2577,
    "Ġfas": 2578,
    "Ġflo": 2579,
    "Ġfix": 2580,
    "Ġface": 2581,
    "Ġfahrenheit": 2582,
    "ffect": 2583,
    "gage": 2584,
    "Ġjaonga": 2585,
    "red": 2586,
    "med": 2587,
    "Ġ16": 2588,
    "Ġdilaiye": 2589,
    "Ġdilasakte": 2590,
    "ĠShe": 2591,
    "how": 2592,
    "Ġsave": 2593,
    "Ġear": 2594,
    "Ġtemp": 2595,
    "ĠCle": 2596,
    "ĠCan": 2597,
    "cks": 2598,
    "ĠMar": 2599,
    "ĠMin": 2600,
    "ĠMon": 2601,
    "ital": 2602,
    "Ġ21": 2603,
    "Ġ23": 2604,
    "Ġ27": 2605,
    "road": 2606,
    "agla": 2607,
    "ĠTampa": 2608,
    "ĠToronto": 2609,
    "ĠTexas": 2610,
    "augh": 2611,
    "lywood": 2612,
    "Ġdinon": 2613,
    "ĠBar": 2614,
    "ower": 2615,
    "owers": 2616,
    "Ġole": 2617,
    "Ġdikhaen": 2618,
    "ighbor": 2619,
    "ĠDC": 2620,
    "ĠDenver": 2621,
    "Ġhafton": 2622,
    "Ġhogaya": 2623,
    "ĠWorld": 2624,
    "ĠHall": 2625,
    "ĠNYC": 2626,
    "Ġghanton": 2627,
    "Ġpot": 2628,
    "Ġmost": 2629,
    "ĠIn": 2630,
    "Ġchalne": 2631,
    "Ġjode": 2632,
    "ĠKO": 2633,
    "ĠKAR": 2634,
    "Ġattend": 2635,
    "ĠGeor": 2636,
    "lie": 2637,
    "like": 2638,
    "Ġnumber": 2639,
    "sakta": 2640,
    "arahe": 2641,
    "Ġwaale": 2642,
    "Ġwaali": 2643,
    "Ġbadale": 2644,
    "Ġdekhe": 2645,
    "Ġonline": 2646,
    "avid": 2647,
    "Ġthere": 2648,
    "Ġthread": 2649,
    "ruary": 2650,
    "Ġraho": 2651,
    "Ġrepeating": 2652,
    "Ġdenge": 2653,
    "ooks": 2654,
    "erson": 2655,
    "Ġchicago": 2656,
    "Ġpickup": 2657,
    "Ġunke": 2658,
    "Ġflowers": 2659,
    "Ġsnowing": 2660,
    "Alarms": 2661,
    "Ġmaa": 2662,
    "adium": 2663,
    "maal": 2664,
    "Ġclassic": 2665,
    "Ġsone": 2666,
    "Ġdays": 2667,
    "Ġcountdown": 2668,
    "Ġanniversary": 2669,
    "Ġscheduled": 2670,
    "Ġswift": 2671,
    "ĠJose": 2672,
    "Ġclos": 2673,
    "Ġclock": 2674,
    "Ġcloudy": 2675,
    "Ġjald": 2676,
    "kitne": 2677,
    "ĠAntonio": 2678,
    "Ġbachne": 2679,
    "Ġproject": 2680,
    "Ġbank": 2681,
    "Ġnote": 2682,
    "ails": 2683,
    "Ġjanna": 2684,
    "Ġnearest": 2685,
    "ggs": 2686,
    "Ġweekdays": 2687,
    "ĠColumb": 2688,
    "Ġlighting": 2689,
    "Ġcomputer": 2690,
    "Ġactive": 2691,
    "Ġkyu": 2692,
    "Ġthik": 2693,
    "Kitna": 2694,
    "Week": 2695,
    "ebruary": 2696,
    "Ġdusra": 2697,
    "ichigan": 2698,
    "Ġhotel": 2699,
    "Traffic": 2700,
    "Ġistemaal": 2701,
    "Ġtareekh": 2702,
    "Ġguzar": 2703,
    "Ġtonight": 2704,
    "Ġfreezing": 2705,
    "Ġkhilane": 2706,
    "thursday": 2707,
    "ijing": 2708,
    "izza": 2709,
    "wenty": 2710,
    "25": 2711,
    "94": 2712,
    "AI": 2713,
    "Aj": 2714,
    "Col": 2715,
    "Jab": 2716,
    "Konse": 2717,
    "Las": 2718,
    "Message": 2719,
    "Portland": 2720,
    "Paris": 2721,
    "ST": 2722,
    "Song": 2723,
    "September": 2724,
    "Sacramento": 2725,
    "Sarah": 2726,
    "Th": 2727,
    "Tho": 2728,
    "YE": 2729,
    "ax": 2730,
    "bu": 2731,
    "ban": 2732,
    "bahar": 2733,
    "car": 2734,
    "cre": 2735,
    "dit": 2736,
    "dale": 2737,
    "een": 2738,
    "fr": 2739,
    "fir": 2740,
    "friday": 2741,
    "ful": 2742,
    "field": 2743,
    "gro": 2744,
    "grandma": 2745,
    "hna": 2746,
    "ig": 2747,
    "iday": 2748,
    "ition": 2749,
    "jo": 2750,
    "lake": 2751,
    "lington": 2752,
    "mal": 2753,
    "nual": 2754,
    "ound": 2755,
    "pel": 2756,
    "phoenix": 2757,
    "ristmas": 2758,
    "rest": 2759,
    "ser": 2760,
    "ves": 2761,
    "yar": 2762,
    "za": 2763,
    "Ġen": 2764,
    "ĠPlease": 2765,
    "Ġve": 2766,
    "Ġume": 2767,
    "Ġinterstate": 2768,
    "Ġmake": 2769,
    "Ġsm": 2770,
    "Ġsu": 2771,
    "Ġsare": 2772,
    "Ġsit": 2773,
    "Ġside": 2774,
    "Ġsirf": 2775,
    "erry": 2776,
    "Ġangeles": 2777,
    "Ġaffect": 2778,
    "Ġkese": 2779,
    "Ġline": 2780,
    "Ġbarey": 2781,
    "Ġtal": 2782,
    "Ġtri": 2783,
    "Ġthir": 2784,
    "Ġpla": 2785,
    "ino": 2786,
    "Ġmetal": 2787,
    "Ġbag": 2788,
    "Ġda": 2789,
    "hes": 2790,
    "hats": 2791,
    "Ġkarein": 2792,
    "Ġkisi": 2793,
    "alo": 2794,
    "Ġcamp": 2795,
    "Ġcelcius": 2796,
    "tem": 2797,
    "teen": 2798,
    "aso": 2799,
    "led": 2800,
    "ative": 2801,
    "Ġall": 2802,
    "eno": 2803,
    "Ġreg": 2804,
    "Ġreunion": 2805,
    "Ġkap": 2806,
    "ori": 2807,
    "anna": 2808,
    "akhi": 2809,
    "Ġgha": 2810,
    "Ġhee": 2811,
    "christmas": 2812,
    "Ġjaraha": 2813,
    "illy": 2814,
    "amie": 2815,
    "Ġfil": 2816,
    "Ġfish": 2817,
    "Ġfund": 2818,
    "Ġchale": 2819,
    "Ġchala": 2820,
    "entral": 2821,
    "nie": 2822,
    "Ġjao": 2823,
    "reminder": 2824,
    "medy": 2825,
    "elb": 2826,
    "Ġlaana": 2827,
    "ĠSha": 2828,
    "ĠSale": 2829,
    "ĠState": 2830,
    "ĠSMS": 2831,
    "Ġchahunga": 2832,
    "hod": 2833,
    "Ġdefault": 2834,
    "Ġele": 2835,
    "Ġeggs": 2836,
    "ĠCalifornia": 2837,
    "Ġ35": 2838,
    "itter": 2839,
    "Ġpaunga": 2840,
    "rock": 2841,
    "ĠTaylor": 2842,
    "ĠTemperature": 2843,
    "Ġname": 2844,
    "eche": 2845,
    "Ġtheater": 2846,
    "olis": 2847,
    "ĠFarm": 2848,
    "atest": 2849,
    "ĠAaj": 2850,
    "ĠAven": 2851,
    "ĠAustin": 2852,
    "ĠPe": 2853,
    "ĠPro": 2854,
    "Ġcont": 2855,
    "ĠBlvd": 2856,
    "Ġ101": 2857,
    "Ġoor": 2858,
    "Ġdilaaye": 2859,
    "Ġneed": 2860,
    "Ġneighbor": 2861,
    "Ġneeche": 2862,
    "Ġadvis": 2863,
    "Ġbada": 2864,
    "Ġcost": 2865,
    "ĠDe": 2866,
    "Ġlevel": 2867,
    "Ġvol": 2868,
    "Ġbeer": 2869,
    "Ġbeti": 2870,
    "Ġbehen": 2871,
    "ĠWe": 2872,
    "ĠWal": 2873,
    "ĠWine": 2874,
    "ĠHe": 2875,
    "ĠHawaii": 2876,
    "ĠLI": 2877,
    "ĠLos": 2878,
    "ĠJune": 2879,
    "ĠJason": 2880,
    "ĠJustin": 2881,
    "ĠJanuary": 2882,
    "coat": 2883,
    "lanta": 2884,
    "ĠKE": 2885,
    "ĠKid": 2886,
    "Ġthat": 2887,
    "ĠGreen": 2888,
    "Ġnorm": 2889,
    "sakte": 2890,
    "Ġbadalna": 2891,
    "Ġkharaab": 2892,
    "Ġinches": 2893,
    "ĠEl": 2894,
    "Ġliya": 2895,
    "Ġlife": 2896,
    "Ġmilna": 2897,
    "ustral": 2898,
    "ĠOregon": 2899,
    "Ġmahiney": 2900,
    "oma": 2901,
    "Ġreschedule": 2902,
    "Ġrestaur": 2903,
    "Ġpahuchunga": 2904,
    "vals": 2905,
    "Ġlog": 2906,
    "weather": 2907,
    "Ġunki": 2908,
    "Ġmondays": 2909,
    "Ġrecyc": 2910,
    "Ġflor": 2911,
    "ĠValley": 2912,
    "Ġboston": 2913,
    "vities": 2914,
    "Ġiheartradio": 2915,
    "Ġmahee": 2916,
    "aleigh": 2917,
    "Ġhim": 2918,
    "Ġaaya": 2919,
    "ĠSanta": 2920,
    "workout": 2921,
    "Ġchannel": 2922,
    "unes": 2923,
    "Ġjaaen": 2924,
    "press": 2925,
    "Ġrakhne": 2926,
    "eyonce": 2927,
    "ites": 2928,
    "Ġraincoat": 2929,
    "Ġhatado": 2930,
    "Ġkhojen": 2931,
    "Ġjagane": 2932,
    "ĠRoad": 2933,
    "Ġplants": 2934,
    "Ġdates": 2935,
    "Ġ2019": 2936,
    "Ġperc": 2937,
    "Ġperform": 2938,
    "veland": 2939,
    "Ġpredic": 2940,
    "Ġbachon": 2941,
    "Ġwalking": 2942,
    "Ġbread": 2943,
    "inks": 2944,
    "Ġgoing": 2945,
    "baarish": 2946,
    "Ġtax": 2947,
    "asakta": 2948,
    "Ġsadaken": 2949,
    "Ġfavorites": 2950,
    "Ġbhai": 2951,
    "Ġbhul": 2952,
    "Ġhomework": 2953,
    "ĠColorado": 2954,
    "Ġpresent": 2955,
    "cola": 2956,
    "Ġkyun": 2957,
    "Ġhits": 2958,
    "Ġchutkara": 2959,
    "Ġmedicine": 2960,
    "ropical": 2961,
    "Ġsoundtrack": 2962,
    "Ġchizein": 2963,
    "Ġpehla": 2964,
    "ĠHoliday": 2965,
    "Ġdetails": 2966,
    "Ġspecial": 2967,
    "Laura": 2968,
    "classical": 2969,
    "ydney": 2970,
    "Ġdauraan": 2971,
    "Ġcontact": 2972,
    "Ġpohchunga": 2973,
    "Today": 2974,
    "Ġkutte": 2975,
    "ensacola": 2976,
    "Ġumeed": 2977,
    "hatsApp": 2978,
    "Ġfundrai": 2979,
    "ĠSalem": 2980,
    "ustralia": 2981,
    "Ġmaheene": 2982,
    "60": 2983,
    "80": 2984,
    "AT": 2985,
    "Aap": 2986,
    "Alex": 2987,
    "Bri": 2988,
    "Ch": 2989,
    "Co": 2990,
    "DA": 2991,
    "He": 2992,
    "Ham": 2993,
    "IM": 2994,
    "Ise": 2995,
    "Ju": 2996,
    "Jim": 2997,
    "Jackson": 2998,
    "Last": 2999,
    "Mo": 3000,
    "Min": 3001,
    "Mad": 3002,
    "October": 3003,
    "Phoenix": 3004,
    "Reminder": 3005,
    "SA": 3006,
    "SE": 3007,
    "Ste": 3008,
    "The": 3009,
    "Tampa": 3010,
    "ave": 3011,
    "aco": 3012,
    "bra": 3013,
    "bec": 3014,
    "bed": 3015,
    "beat": 3016,
    "bby": 3017,
    "cast": 3018,
    "crip": 3019,
    "eth": 3020,
    "gas": 3021,
    "iya": 3022,
    "ities": 3023,
    "ji": 3024,
    "kl": 3025,
    "kes": 3026,
    "lue": 3027,
    "mausam": 3028,
    "miss": 3029,
    "non": 3030,
    "now": 3031,
    "oga": 3032,
    "ome": 3033,
    "ones": 3034,
    "pli": 3035,
    "pike": 3036,
    "ptember": 3037,
    "pitation": 3038,
    "ron": 3039,
    "rick": 3040,
    "ress": 3041,
    "rance": 3042,
    "ront": 3043,
    "ture": 3044,
    "ugh": 3045,
    "vid": 3046,
    "wab": 3047,
    "yn": 3048,
    "yle": 3049,
    "zen": 3050,
    "zde": 3051,
    "zona": 3052,
    "Ġ(": 3053,
    "Ġel": 3054,
    "ĠKal": 3055,
    "Ġesti": 3056,
    "arts": 3057,
    "Ġmar": 3058,
    "Ġmay": 3059,
    "Ġmic": 3060,
    "Ġmad": 3061,
    "Ġsk": 3062,
    "Ġsile": 3063,
    "Ġsleep": 3064,
    "Ġserv": 3065,
    "erc": 3066,
    "eran": 3067,
    "Ġaad": 3068,
    "Ġaudio": 3069,
    "Ġaarahe": 3070,
    "Ġlet": 3071,
    "Ġless": 3072,
    "Ġbel": 3073,
    "Ġbrow": 3074,
    "ait": 3075,
    "aisa": 3076,
    "aining": 3077,
    "Ġtu": 3078,
    "Ġtv": 3079,
    "Ġtay": 3080,
    "Ġtropical": 3081,
    "Ġpur": 3082,
    "Ġpool": 3083,
    "Ġpandora": 3084,
    "Ġpichla": 3085,
    "Ġpower": 3086,
    "yak": 3087,
    "Ġmember": 3088,
    "Ġbath": 3089,
    "Ġbake": 3090,
    "neap": 3091,
    "Ġdes": 3092,
    "Ġdance": 3093,
    "Ġdallas": 3094,
    "Ġdawa": 3095,
    "Ġdrop": 3096,
    "Ġdestin": 3097,
    "Ġrent": 3098,
    "Ġseven": 3099,
    "hael": 3100,
    "als": 3101,
    "alti": 3102,
    "Ġcol": 3103,
    "Ġcut": 3104,
    "Ġcli": 3105,
    "Ġchil": 3106,
    "Ġcelsius": 3107,
    "Ġcenter": 3108,
    "Ġcele": 3109,
    "onna": 3110,
    "temperature": 3111,
    "ask": 3112,
    "leans": 3113,
    "atus": 3114,
    "Ġalter": 3115,
    "Ġwas": 3116,
    "Ġwah": 3117,
    "Ġwif": 3118,
    "Ġwhen": 3119,
    "Ġwatch": 3120,
    "Ġwants": 3121,
    "urham": 3122,
    "enlo": 3123,
    "entage": 3124,
    "Ġret": 3125,
    "nate": 3126,
    "sapp": 3127,
    "ors": 3128,
    "ics": 3129,
    "Ġhow": 3130,
    "ang": 3131,
    "ange": 3132,
    "ahoma": 3133,
    "aking": 3134,
    "ges": 3135,
    "Ġgi": 3136,
    "Ġgames": 3137,
    "hib": 3138,
    "hio": 3139,
    "hite": 3140,
    "high": 3141,
    "Ġheat": 3142,
    "rap": 3143,
    "Ġjune": 3144,
    "uston": 3145,
    "Ġfast": 3146,
    "Ġfront": 3147,
    "tie": 3148,
    "enton": 3149,
    "Ġdoos": 3150,
    "uba": 3151,
    "Ġjaha": 3152,
    "Ġjawab": 3153,
    "Ġ13": 3154,
    "Ġ14": 3155,
    "Ġmess": 3156,
    "ello": 3157,
    "Ġlawn": 3158,
    "rie": 3159,
    "rizona": 3160,
    "ĠSE": 3161,
    "ĠSam": 3162,
    "ĠSouth": 3163,
    "seattle": 3164,
    "house": 3165,
    "Ġsaf": 3166,
    "Ġdec": 3167,
    "Ġdein": 3168,
    "three": 3169,
    "Ġeast": 3170,
    "Ġtees": 3171,
    "Ġtemperatur": 3172,
    "apis": 3173,
    "cker": 3174,
    "ĠMer": 3175,
    "ĠMai": 3176,
    "ĠMet": 3177,
    "ĠMid": 3178,
    "ĠMain": 3179,
    "ĠMari": 3180,
    "ĠMex": 3181,
    "Ġ31": 3182,
    "ito": 3183,
    "its": 3184,
    "idity": 3185,
    "isting": 3186,
    "Ġ24": 3187,
    "Ġnights": 3188,
    "ĠTho": 3189,
    "ghai": 3190,
    "gia": 3191,
    "Ġnap": 3192,
    "Ġnazde": 3193,
    "Ġtheek": 3194,
    "olk": 3195,
    "oling": 3196,
    "ĠFL": 3197,
    "ĠFl": 3198,
    "lyn": 3199,
    "ĠAtlantic": 3200,
    "ĠPo": 3201,
    "ĠPer": 3202,
    "Ġstuck": 3203,
    "Ġstarts": 3204,
    "Ġstatus": 3205,
    "irming": 3206,
    "Ġconges": 3207,
    "oween": 3208,
    "Ġzoo": 3209,
    "Ġbatane": 3210,
    "Ġshuruaat": 3211,
    "Ġpehanna": 3212,
    "Ġbhejna": 3213,
    "chats": 3214,
    "chalo": 3215,
    "pot": 3216,
    "Ġcoast": 3217,
    "utcra": 3218,
    "ĠDurham": 3219,
    "Ġsunne": 3220,
    "Ġleav": 3221,
    "Ġvi": 3222,
    "Ġvac": 3223,
    "lack": 3224,
    "ĠWalmart": 3225,
    "ĠHil": 3226,
    "ĠNY": 3227,
    "ĠNorth": 3228,
    "ĠNashville": 3229,
    "Ġzariye": 3230,
    "ĠLo": 3231,
    "ĠIll": 3232,
    "Ġgana": 3233,
    "chenge": 3234,
    "ĠJane": 3235,
    "ational": 3236,
    "Ġshaamil": 3237,
    "Ġchalayen": 3238,
    "coffee": 3239,
    "cean": 3240,
    "ĠKing": 3241,
    "ough": 3242,
    "ould": 3243,
    "ĠGarden": 3244,
    "Ġnorth": 3245,
    "Ġshoes": 3246,
    "Ġachi": 3247,
    "Ġins": 3248,
    "Ġinde": 3249,
    "Ġpado": 3250,
    "Ġpadhen": 3251,
    "ĠEv": 3252,
    "ĠEx": 3253,
    "ĠEng": 3254,
    "ĠETA": 3255,
    "bert": 3256,
    "ieber": 3257,
    "Ġmilk": 3258,
    "owntown": 3259,
    "ifteen": 3260,
    "Ġdena": 3261,
    "ular": 3262,
    "Ġkisne": 3263,
    "Ġderi": 3264,
    "Ġchhod": 3265,
    "Ġnews": 3266,
    "Ġunivers": 3267,
    "Ġbot": 3268,
    "Ġextend": 3269,
    "vite": 3270,
    "Ġdikhta": 3271,
    "Ġdikhraha": 3272,
    "Ġsport": 3273,
    "osh": 3274,
    "ternative": 3275,
    "hamare": 3276,
    "Ġdislike": 3277,
    "Ġleni": 3278,
    "Ġrokey": 3279,
    "Ġswitch": 3280,
    "Ġrakhiye": 3281,
    "Ġhamari": 3282,
    "Ġhighways": 3283,
    "pehle": 3284,
    "Ġfreeze": 3285,
    "oldplay": 3286,
    "Ġprice": 3287,
    "cipitation": 3288,
    "ourne": 3289,
    "ourites": 3290,
    "Ġfriends": 3291,
    "Ġprecipitation": 3292,
    "Ġfavourites": 3293,
    "Ġarri": 3294,
    "Ġaround": 3295,
    "dopaher": 3296,
    "sunset": 3297,
    "Ġruke": 3298,
    "ĠComedy": 3299,
    "Ġhojayega": 3300,
    "Ġhojayegi": 3301,
    "Ġinterview": 3302,
    "Ġintervals": 3303,
    "bound": 3304,
    "Ġchod": 3305,
    "Ġjams": 3306,
    "Ġprescrip": 3307,
    "Ġmidday": 3308,
    "Ġhave": 3309,
    "Ġhalka": 3310,
    "Ġactivities": 3311,
    "humidity": 3312,
    "Ġfind": 3313,
    "ĠSpain": 3314,
    "Ġsabko": 3315,
    "Kitne": 3316,
    "Weather": 3317,
    "kype": 3318,
    "Ġscreen": 3319,
    "ichelle": 3320,
    "ĠTime": 3321,
    "Ġgaram": 3322,
    "illiam": 3323,
    "ĠHighway": 3324,
    "Ġinformation": 3325,
    "snooze": 3326,
    "shire": 3327,
    "Ġsuppli": 3328,
    "Ġdono": 3329,
    "Ġcalend": 3330,
    "ookie": 3331,
    "Ġdetours": 3332,
    "ĠThumbs": 3333,
    "ĠLouisville": 3334,
    "Ġdhundo": 3335,
    "Ġuthne": 3336,
    "Ġthunderstorms": 3337,
    "construction": 3338,
    "soft": 3339,
    "ĠCleveland": 3340,
    "Ġclosest": 3341,
    "Weekend": 3342,
    "Colorado": 3343,
    "Ġthirty": 3344,
    "inois": 3345,
    "Ġdaal": 3346,
    "ĠAvenue": 3347,
    "ĠLIYE": 3348,
    "Ġrestaurant": 3349,
    "Ġrecycling": 3350,
    "Ġflorida": 3351,
    "pressway": 3352,
    "Ġpercentage": 3353,
    "klahoma": 3354,
    "Ġestim": 3355,
    "neapolis": 3356,
    "Ġdestination": 3357,
    "altimore": 3358,
    "Ġalternate": 3359,
    "Ġwife": 3360,
    "Ġtemperatures": 3361,
    "ĠMexico": 3362,
    "Ġnazdeek": 3363,
    "irmingham": 3364,
    "utcracker": 3365,
    "ĠIllinois": 3366,
    "Ġsupplies": 3367,
    "12": 3368,
    "13": 3369,
    "17": 3370,
    "55": 3371,
    "April": 3372,
    "Br": 3373,
    "Car": 3374,
    "Cha": 3375,
    "Don": 3376,
    "Day": 3377,
    "Dan": 3378,
    "Dani": 3379,
    "EM": 3380,
    "Easter": 3381,
    "Fort": 3382,
    "GA": 3383,
    "Grandma": 3384,
    "HO": 3385,
    "Hum": 3386,
    "High": 3387,
    "Jen": 3388,
    "Ko": 3389,
    "LY": 3390,
    "Lady": 3391,
    "Lisa": 3392,
    "Man": 3393,
    "Mark": 3394,
    "Mary": 3395,
    "Mont": 3396,
    "Nashville": 3397,
    "Ryan": 3398,
    "Se": 3399,
    "Su": 3400,
    "Sam": 3401,
    "Spr": 3402,
    "Sirf": 3403,
    "Taylor": 3404,
    "UR": 3405,
    "UTE": 3406,
    "WhatsApp": 3407,
    "Yaha": 3408,
    "az": 3409,
    "aya": 3410,
    "aane": 3411,
    "azz": 3412,
    "bay": 3413,
    "bel": 3414,
    "cc": 3415,
    "cl": 3416,
    "cus": 3417,
    "cts": 3418,
    "chan": 3419,
    "cook": 3420,
    "cons": 3421,
    "das": 3422,
    "ean": 3423,
    "fin": 3424,
    "fast": 3425,
    "ford": 3426,
    "fore": 3427,
    "five": 3428,
    "fect": 3429,
    "gy": 3430,
    "ghe": 3431,
    "gari": 3432,
    "hta": 3433,
    "hood": 3434,
    "irection": 3435,
    "jane": 3436,
    "jab": 3437,
    "just": 3438,
    "kul": 3439,
    "kari": 3440,
    "lf": 3441,
    "lunch": 3442,
    "mon": 3443,
    "month": 3444,
    "mark": 3445,
    "mike": 3446,
    "mont": 3447,
    "mith": 3448,
    "no": 3449,
    "nis": 3450,
    "nce": 3451,
    "oven": 3452,
    "pt": 3453,
    "ple": 3454,
    "pho": 3455,
    "part": 3456,
    "pond": 3457,
    "ris": 3458,
    "run": 3459,
    "ril": 3460,
    "rush": 3461,
    "sta": 3462,
    "sirf": 3463,
    "sleep": 3464,
    "sburg": 3465,
    "tm": 3466,
    "tar": 3467,
    "tak": 3468,
    "tues": 3469,
    "top": 3470,
    "taylor": 3471,
    "ua": 3472,
    "uc": 3473,
    "uation": 3474,
    "vin": 3475,
    "wake": 3476,
    "water": 3477,
    "watch": 3478,
    "xas": 3479,
    "yo": 3480,
    "yon": 3481,
    "Ġ)": 3482,
    "Ġic": 3483,
    "Ġge": 3484,
    "Ġice": 3485,
    "Ġenter": 3486,
    "Ġkhe": 3487,
    "Ġkum": 3488,
    "arth": 3489,
    "arry": 3490,
    "Ġmix": 3491,
    "Ġsat": 3492,
    "Ġshi": 3493,
    "Ġsus": 3494,
    "Ġshar": 3495,
    "Ġsys": 3496,
    "Ġhall": 3497,
    "Ġaugust": 3498,
    "Ġass": 3499,
    "Ġawa": 3500,
    "Ġkehne": 3501,
    "Ġkara": 3502,
    "Ġkaran": 3503,
    "Ġlaiye": 3504,
    "Ġbit": 3505,
    "Ġbut": 3506,
    "aily": 3507,
    "Ġtru": 3508,
    "Ġtampa": 3509,
    "Ġtwenty": 3510,
    "Ġpl": 3511,
    "Ġpol": 3512,
    "Ġpull": 3513,
    "Ġpanch": 3514,
    "Ġperson": 3515,
    "ini": 3516,
    "inki": 3517,
    "Ġmexico": 3518,
    "Ġbal": 3519,
    "Ġdab": 3520,
    "Ġdhee": 3521,
    "Ġride": 3522,
    "Ġroom": 3523,
    "Ġhail": 3524,
    "heel": 3525,
    "Ġsearch": 3526,
    "has": 3527,
    "Ġkid": 3528,
    "ala": 3529,
    "alf": 3530,
    "Ġcen": 3531,
    "Ġcup": 3532,
    "Ġcool": 3533,
    "leston": 3534,
    "ato": 3535,
    "atre": 3536,
    "Ġalternative": 3537,
    "Ġwat": 3538,
    "Ġwish": 3539,
    "Ġwant": 3540,
    "urg": 3541,
    "ena": 3542,
    "ens": 3543,
    "Ġrelease": 3544,
    "Ġremai": 3545,
    "orry": 3546,
    "icane": 3547,
    "issi": 3548,
    "Ġbajana": 3549,
    "Ġsetup": 3550,
    "Ġhokar": 3551,
    "ank": 3552,
    "anth": 3553,
    "andom": 3554,
    "Ġparad": 3555,
    "Ġparents": 3556,
    "minders": 3557,
    "akes": 3558,
    "unk": 3559,
    "unity": 3560,
    "Ġgl": 3561,
    "Ġgai": 3562,
    "Ġgos": 3563,
    "Ġgrand": 3564,
    "Ġghat": 3565,
    "Ġhei": 3566,
    "Ġheart": 3567,
    "rab": 3568,
    "ram": 3569,
    "raffic": 3570,
    "chup": 3571,
    "kyaa": 3572,
    "Ġjit": 3573,
    "Ġjuly": 3574,
    "Ġjaise": 3575,
    "Ġjersey": 3576,
    "Ġjasakta": 3577,
    "ilo": 3578,
    "ama": 3579,
    "Ġfall": 3580,
    "Ġfridge": 3581,
    "Ġfair": 3582,
    "Ġfield": 3583,
    "tire": 3584,
    "ingle": 3585,
    "aseball": 3586,
    "Ġmintues": 3587,
    "gae": 3588,
    "Ġjae": 3589,
    "Ġjawa": 3590,
    "real": 3591,
    "ream": 3592,
    "met": 3593,
    "meeting": 3594,
    "Ġ19": 3595,
    "Ġmese": 3596,
    "els": 3597,
    "Ġlaunch": 3598,
    "harleston": 3599,
    "oots": 3600,
    "ndler": 3601,
    "ĠSo": 3602,
    "ĠSus": 3603,
    "ĠSqu": 3604,
    "ĠSeptember": 3605,
    "ĠShow": 3606,
    "houston": 3607,
    "Ġdece": 3608,
    "thers": 3609,
    "Ġext": 3610,
    "Ġeight": 3611,
    "Ġ59": 3612,
    "ĠCong": 3613,
    "ĠCharlotte": 3614,
    "ĠCelcius": 3615,
    "athy": 3616,
    "ances": 3617,
    "ancou": 3618,
    "dog": 3619,
    "ĠMe": 3620,
    "ĠMy": 3621,
    "ĠMor": 3622,
    "ĠMel": 3623,
    "ĠMuje": 3624,
    "ĠMom": 3625,
    "ĠMac": 3626,
    "ĠMike": 3627,
    "ĠMarch": 3628,
    "ĠMilwaukee": 3629,
    "ĠMichigan": 3630,
    "Ġ37": 3631,
    "ittle": 3632,
    "hurric": 3633,
    "ett": 3634,
    "Ġsaku": 3635,
    "Ġisland": 3636,
    "station": 3637,
    "stop": 3638,
    "stone": 3639,
    "Ġpaayen": 3640,
    "Ġpaanch": 3641,
    "roz": 3642,
    "ĠTr": 3643,
    "ĠTw": 3644,
    "ĠTim": 3645,
    "ump": 3646,
    "Ġ64": 3647,
    "Ġthey": 3648,
    "Ġtheatre": 3649,
    "olf": 3650,
    "mpton": 3651,
    "ĠFort": 3652,
    "ĠFamily": 3653,
    "ĠFire": 3654,
    "ĠFred": 3655,
    "ĠFebruary": 3656,
    "aud": 3657,
    "Ġ70": 3658,
    "ates": 3659,
    "ĠAir": 3660,
    "ĠAunt": 3661,
    "ĠApp": 3662,
    "ĠApril": 3663,
    "ĠAustralia": 3664,
    "ĠArizona": 3665,
    "ĠPit": 3666,
    "ĠPau": 3667,
    "ĠParis": 3668,
    "irgin": 3669,
    "Ġconven": 3670,
    "ĠBay": 3671,
    "ĠBel": 3672,
    "ĠBirthday": 3673,
    "ĠBridge": 3674,
    "ĠBieber": 3675,
    "anda": 3676,
    "andy": 3677,
    "Ġour": 3678,
    "Ġdilaana": 3679,
    "Ġ44": 3680,
    "Ġ49": 3681,
    "Ġbheja": 3682,
    "Ġbhejkar": 3683,
    "Ġ98": 3684,
    "chandler": 3685,
    "Ġadjust": 3686,
    "Ġbadh": 3687,
    "pos": 3688,
    "Ġcoup": 3689,
    "Ġcourt": 3690,
    "ĠDavid": 3691,
    "ĠDirection": 3692,
    "Ġsunset": 3693,
    "cery": 3694,
    "Ġvapas": 3695,
    "lab": 3696,
    "Ġagli": 3697,
    "Ġbegin": 3698,
    "Ġbefore": 3699,
    "ĠWil": 3700,
    "ĠHi": 3701,
    "ĠHappy": 3702,
    "ĠHills": 3703,
    "ĠHAI": 3704,
    "ĠNe": 3705,
    "ĠNic": 3706,
    "ĠNight": 3707,
    "ĠNove": 3708,
    "ĠLi": 3709,
    "ĠLady": 3710,
    "Ġpoore": 3711,
    "Ġreplay": 3712,
    "local": 3713,
    "chester": 3714,
    "ĠJazz": 3715,
    "urricane": 3716,
    "Ġchalane": 3717,
    "verse": 3718,
    "icky": 3719,
    "ctions": 3720,
    "ctric": 3721,
    "ĠKo": 3722,
    "ĠKar": 3723,
    "ĠKey": 3724,
    "ĠKenny": 3725,
    "Ġhardy": 3726,
    "Ġatlanta": 3727,
    "Ġlagbha": 3728,
    "ĠGA": 3729,
    "ĠGro": 3730,
    "anada": 3731,
    "Ġshamil": 3732,
    "Ġusne": 3733,
    "Ġnow": 3734,
    "Ġniche": 3735,
    "Ġshop": 3736,
    "sible": 3737,
    "sign": 3738,
    "Ġaccount": 3739,
    "Ġwave": 3740,
    "Ġbadalen": 3741,
    "Ġandey": 3742,
    "Ġinvite": 3743,
    "Ġcredit": 3744,
    "kaam": 3745,
    "kaara": 3746,
    "untain": 3747,
    "ĠOut": 3748,
    "ĠOhio": 3749,
    "ope": 3750,
    "ific": 3751,
    "Ġhighs": 3752,
    "Ġtracks": 3753,
    "ulf": 3754,
    "ulu": 3755,
    "Ġmilen": 3756,
    "Ġreserv": 3757,
    "Ġrespond": 3758,
    "Ġpahuchna": 3759,
    "Ġlos": 3760,
    "101": 3761,
    "Ġmonths": 3762,
    "Mexico": 3763,
    "Ġuncle": 3764,
    "Ġlambe": 3765,
    "today": 3766,
    "Ġmornings": 3767,
    "ĠVA": 3768,
    "Ġboss": 3769,
    "Ġbolen": 3770,
    "Ġexit": 3771,
    "Ġexerc": 3772,
    "Ġexhib": 3773,
    "via": 3774,
    "Ġshor": 3775,
    "Ġshut": 3776,
    "Ġroutes": 3777,
    "Ġsports": 3778,
    "Maine": 3779,
    "Ġign": 3780,
    "maha": 3781,
    "Ġclasses": 3782,
    "Ġthandi": 3783,
    "Ġpadega": 3784,
    "acti": 3785,
    "acchon": 3786,
    "Ġkhaana": 3787,
    "Ġkhatm": 3788,
    "Ġhighe": 3789,
    "most": 3790,
    "ĠUni": 3791,
    "ĠUncle": 3792,
    "Mondays": 3793,
    "ĠStadium": 3794,
    "quer": 3795,
    "works": 3796,
    "Ġannual": 3797,
    "playlist": 3798,
    "ĠJoel": 3799,
    "Ġshehar": 3800,
    "Ġtezi": 3801,
    "Ġrainfall": 3802,
    "uffalo": 3803,
    "Ġbajaaye": 3804,
    "timeters": 3805,
    "Ġlanes": 3806,
    "ĠBoise": 3807,
    "Ġ405": 3808,
    "Ġbacked": 3809,
    "Ġstreets": 3810,
    "Ġcondition": 3811,
    "ĠOrleans": 3812,
    "ĠRock": 3813,
    "cience": 3814,
    "Ġtrash": 3815,
    "kitni": 3816,
    "Ġwind": 3817,
    "ĠAnn": 3818,
    "Ġarran": 3819,
    "inkin": 3820,
    "Ġkachara": 3821,
    "Ġpehenna": 3822,
    "Ġprogra": 3823,
    "weekly": 3824,
    "Ġruko": 3825,
    "ĠCounty": 3826,
    "Ġnot": 3827,
    "Ġsadakon": 3828,
    "itamin": 3829,
    "Ġaayega": 3830,
    "Ġaayegi": 3831,
    "Ġjanne": 3832,
    "Ġuthao": 3833,
    "gging": 3834,
    "Ġkardiya": 3835,
    "Ġpicnic": 3836,
    "nessee": 3837,
    "Ġchota": 3838,
    "Ġhaal": 3839,
    "ĠArt": 3840,
    "ĠArbor": 3841,
    "Ġmujse": 3842,
    "Ġfinal": 3843,
    "Ġfinish": 3844,
    "Ġpopular": 3845,
    "Ġchutti": 3846,
    "midday": 3847,
    "midnight": 3848,
    "Ġkhul": 3849,
    "Ġmedication": 3850,
    "Ġbacchon": 3851,
    "Ġlikhe": 3852,
    "Ġdrinks": 3853,
    "Ġdusre": 3854,
    "ĠMadrid": 3855,
    "kyo": 3856,
    "Ġbring": 3857,
    "Ġturnpike": 3858,
    "ĠCarol": 3859,
    "Ġistemal": 3860,
    "ĠHollywood": 3861,
    "Ġassign": 3862,
    "Ġjagah": 3863,
    "ĠManhattan": 3864,
    "Scotland": 3865,
    "beach": 3866,
    "iverside": 3867,
    "Ġsales": 3868,
    "Ġcooking": 3869,
    "Ġreading": 3870,
    "ĠSteve": 3871,
    "ĠJacksonville": 3872,
    "Ġartists": 3873,
    "Lucy": 3874,
    "Quebec": 3875,
    "Sabse": 3876,
    "forecast": 3877,
    "graph": 3878,
    "Ġblocked": 3879,
    "Ġdhoond": 3880,
    "Ġgreat": 3881,
    "ĠBrit": 3882,
    "Ġspring": 3883,
    "2018": 3884,
    "Ġdohrayen": 3885,
    "celona": 3886,
    "Ġtaiz": 3887,
    "Ġthode": 3888,
    "Ġfloss": 3889,
    "ĠSheeran": 3890,
    "roadway": 3891,
    "ĠBarcelona": 3892,
    "ĠHalloween": 3893,
    "Ġjodein": 3894,
    "ĠGeorgia": 3895,
    "ĠColumbia": 3896,
    "first": 3897,
    "Ġengage": 3898,
    "Ġvegas": 3899,
    "Ġsmile": 3900,
    "Ġplace": 3901,
    "Ġregister": 3902,
    "Ġkapde": 3903,
    "annah": 3904,
    "elbourne": 3905,
    "Ġneighborhood": 3906,
    "Ġadvisory": 3907,
    "ĠWeek": 3908,
    "Ġnormal": 3909,
    "Ġpredict": 3910,
    "Ġfundraiser": 3911,
    "China": 3912,
    "Minneapolis": 3913,
    "brate": 3914,
    "Ġmadad": 3915,
    "Ġskating": 3916,
    "Ġbelow": 3917,
    "Ġtuition": 3918,
    "Ġtayyar": 3919,
    "Ġmembers": 3920,
    "Ġcongestion": 3921,
    "Ġleaving": 3922,
    "ĠHilda": 3923,
    "Ġindex": 3924,
    "Ġuniversal": 3925,
    "Ġsporting": 3926,
    "Ġcalendar": 3927,
    "Dayton": 3928,
    "Daniel": 3929,
    "Koi": 3930,
    "running": 3931,
    "Ġicy": 3932,
    "Ġsystem": 3933,
    "Ġcentimeters": 3934,
    "Ġparades": 3935,
    "Ġgospel": 3936,
    "Ġjawaab": 3937,
    "Ġdecember": 3938,
    "Ġextra": 3939,
    "ancouver": 3940,
    "hurricane": 3941,
    "irginia": 3942,
    "Ġbeginning": 3943,
    "ĠNovember": 3944,
    "Ġlagbhag": 3945,
    "Ġignore": 3946,
    "Ġhighest": 3947,
    "Ġarrange": 3948,
    "Ġprogram": 3949,
    "'m": 3950,
    "19": 3951,
    "27": 3952,
    "35": 3953,
    "Am": 3954,
    "As": 3955,
    "Aagle": 3956,
    "Aab": 3957,
    "Atlantic": 3958,
    "Bel": 3959,
    "Band": 3960,
    "Bill": 3961,
    "Billy": 3962,
    "Blue": 3963,
    "Birmingham": 3964,
    "Current": 3965,
    "California": 3966,
    "Di": 3967,
    "Dad": 3968,
    "Del": 3969,
    "Detroit": 3970,
    "David": 3971,
    "Dave": 3972,
    "Downtown": 3973,
    "EN": 3974,
    "El": 3975,
    "Emin": 3976,
    "Every": 3977,
    "Elv": 3978,
    "Facebook": 3979,
    "Ghar": 3980,
    "Green": 3981,
    "Geor": 3982,
    "HE": 3983,
    "Hol": 3984,
    "Hame": 3985,
    "Hello": 3986,
    "In": 3987,
    "Jill": 3988,
    "Jake": 3989,
    "Jess": 3990,
    "Jamie": 3991,
    "Kel": 3992,
    "Kim": 3993,
    "Lin": 3994,
    "Linda": 3995,
    "MA": 3996,
    "May": 3997,
    "Mag": 3998,
    "Mart": 3999,
    "Mari": 4000,
    "Messenger": 4001,
    "Milwaukee": 4002,
    "Menlo": 4003,
    "Melbourne": 4004,
    "NE": 4005,
    "Naye": 4006,
    "OM": 4007,
    "OR": 4008,
    "Oklahoma": 4009,
    "Philadelphia": 4010,
    "Pensacola": 4011,
    "Qu": 4012,
    "RA": 4013,
    "Raleigh": 4014,
    "Sp": 4015,
    "Sil": 4016,
    "Shar": 4017,
    "South": 4018,
    "Tal": 4019,
    "Thur": 4020,
    "UN": 4021,
    "US": 4022,
    "Uncle": 4023,
    "Vancouver": 4024,
    "Virginia": 4025,
    "Wo": 4026,
    "Wat": 4027,
    "Work": 4028,
    "West": 4029,
    "Washington": 4030,
    "aen": 4031,
    "aam": 4032,
    "aap": 4033,
    "abse": 4034,
    "aage": 4035,
    "bi": 4036,
    "bar": 4037,
    "birthday": 4038,
    "bage": 4039,
    "bacchon": 4040,
    "cut": 4041,
    "cramento": 4042,
    "dh": 4043,
    "dun": 4044,
    "december": 4045,
    "dhee": 4046,
    "drive": 4047,
    "dcast": 4048,
    "daily": 4049,
    "fte": 4050,
    "fic": 4051,
    "fts": 4052,
    "fish": 4053,
    "fest": 4054,
    "family": 4055,
    "florida": 4056,
    "fifteen": 4057,
    "gent": 4058,
    "glass": 4059,
    "grand": 4060,
    "green": 4061,
    "hume": 4062,
    "imp": 4063,
    "ivery": 4064,
    "ker": 4065,
    "kay": 4066,
    "ken": 4067,
    "kri": 4068,
    "kid": 4069,
    "lu": 4070,
    "liye": 4071,
    "lne": 4072,
    "lick": 4073,
    "lood": 4074,
    "lord": 4075,
    "latest": 4076,
    "mic": 4077,
    "mme": 4078,
    "mart": 4079,
    "miami": 4080,
    "mouth": 4081,
    "ns": 4082,
    "nu": 4083,
    "oil": 4084,
    "pha": 4085,
    "pend": 4086,
    "phir": 4087,
    "pass": 4088,
    "pac": 4089,
    "rin": 4090,
    "ray": 4091,
    "rat": 4092,
    "rahi": 4093,
    "room": 4094,
    "ski": 4095,
    "sville": 4096,
    "south": 4097,
    "ssible": 4098,
    "tt": 4099,
    "tro": 4100,
    "tom": 4101,
    "toof": 4102,
    "uge": 4103,
    "ula": 4104,
    "ughts": 4105,
    "vate": 4106,
    "ware": 4107,
    "ward": 4108,
    "xi": 4109,
    "yonce": 4110,
    "zer": 4111,
    "zil": 4112,
    "ĠX": 4113,
    "Ġkr": 4114,
    "Ġkhi": 4115,
    "Ġknow": 4116,
    "argo": 4117,
    "araso": 4118,
    "Ġmm": 4119,
    "Ġmum": 4120,
    "Ġmow": 4121,
    "Ġmort": 4122,
    "Ġser": 4123,
    "Ġste": 4124,
    "Ġstate": 4125,
    "Ġsingle": 4126,
    "Ġscience": 4127,
    "Ġslick": 4128,
    "Ġhate": 4129,
    "Ġhunt": 4130,
    "Ġhav": 4131,
    "Ġhwy": 4132,
    "Ġhurricane": 4133,
    "ering": 4134,
    "erdale": 4135,
    "Ġak": 4136,
    "Ġaai": 4137,
    "Ġaao": 4138,
    "Ġaut": 4139,
    "Ġabse": 4140,
    "Ġaunt": 4141,
    "Ġaustin": 4142,
    "Ġaaraha": 4143,
    "Ġaisa": 4144,
    "Ġaakhi": 4145,
    "Ġlun": 4146,
    "Ġligh": 4147,
    "Ġlater": 4148,
    "Ġlani": 4149,
    "Ġlouis": 4150,
    "Ġlooks": 4151,
    "Ġbil": 4152,
    "Ġbri": 4153,
    "Ġblo": 4154,
    "Ġbou": 4155,
    "Ġbli": 4156,
    "Ġboots": 4157,
    "airo": 4158,
    "Ġty": 4159,
    "Ġthr": 4160,
    "Ġtaylor": 4161,
    "Ġturkey": 4162,
    "Ġtask": 4163,
    "Ġpal": 4164,
    "Ġpak": 4165,
    "Ġpoo": 4166,
    "Ġphan": 4167,
    "Ġpain": 4168,
    "Ġphil": 4169,
    "Ġportland": 4170,
    "Ġpizza": 4171,
    "inge": 4172,
    "indy": 4173,
    "inue": 4174,
    "yaar": 4175,
    "yaad": 4176,
    "Ġmed": 4177,
    "Ġmeat": 4178,
    "Ġbaki": 4179,
    "Ġballe": 4180,
    "Ġdu": 4181,
    "Ġdal": 4182,
    "Ġdas": 4183,
    "Ġdish": 4184,
    "Ġdunga": 4185,
    "Ġdawai": 4186,
    "Ġdraft": 4187,
    "Ġdaud": 4188,
    "Ġrid": 4189,
    "Ġrol": 4190,
    "Ġroop": 4191,
    "Ġrally": 4192,
    "heast": 4193,
    "Ġsele": 4194,
    "Ġsess": 4195,
    "Ġseptember": 4196,
    "haar": 4197,
    "hampton": 4198,
    "hafte": 4199,
    "Ġkarega": 4200,
    "aly": 4201,
    "ales": 4202,
    "alum": 4203,
    "alto": 4204,
    "Ġcra": 4205,
    "Ġcraft": 4206,
    "Ġcities": 4207,
    "onol": 4208,
    "onnie": 4209,
    "ashi": 4210,
    "aska": 4211,
    "leet": 4212,
    "athan": 4213,
    "atie": 4214,
    "atlin": 4215,
    "Ġwri": 4216,
    "Ġwash": 4217,
    "Ġwould": 4218,
    "urance": 4219,
    "urney": 4220,
    "urlington": 4221,
    "ener": 4222,
    "ennessee": 4223,
    "meric": 4224,
    "merica": 4225,
    "Ġrel": 4226,
    "Ġrece": 4227,
    "Ġreally": 4228,
    "Ġreview": 4229,
    "Ġrehna": 4230,
    "Ġkahi": 4231,
    "sand": 4232,
    "orge": 4233,
    "oring": 4234,
    "orner": 4235,
    "ices": 4236,
    "ison": 4237,
    "iscons": 4238,
    "eka": 4239,
    "Ġhog": 4240,
    "Ġhold": 4241,
    "any": 4242,
    "anie": 4243,
    "anny": 4244,
    "ahie": 4245,
    "Ġtiming": 4246,
    "aker": 4247,
    "akland": 4248,
    "geet": 4249,
    "gether": 4250,
    "unge": 4251,
    "unse": 4252,
    "unnel": 4253,
    "adenton": 4254,
    "Ġgane": 4255,
    "Ġgara": 4256,
    "Ġgarden": 4257,
    "Ġgener": 4258,
    "hip": 4259,
    "tacy": 4260,
    "Ġhead": 4261,
    "rahe": 4262,
    "chu": 4263,
    "chne": 4264,
    "Ġjust": 4265,
    "Ġjati": 4266,
    "iliye": 4267,
    "ushi": 4268,
    "usra": 4269,
    "amil": 4270,
    "Ġfly": 4271,
    "Ġfather": 4272,
    "Ġfour": 4273,
    "Ġfire": 4274,
    "Ġfacebook": 4275,
    "timing": 4276,
    "Ġrate": 4277,
    "Ġchaal": 4278,
    "Ġchalo": 4279,
    "Ġchaata": 4280,
    "Ġchaahie": 4281,
    "ingfield": 4282,
    "gaya": 4283,
    "ese": 4284,
    "ests": 4285,
    "nies": 4286,
    "Ġdoud": 4287,
    "Ġdood": 4288,
    "ubbo": 4289,
    "ublic": 4290,
    "Ġjaari": 4291,
    "rec": 4292,
    "ret": 4293,
    "rew": 4294,
    "reat": 4295,
    "reminders": 4296,
    "Ġyah": 4297,
    "Ġyahan": 4298,
    "Ġminutese": 4299,
    "Ġlabel": 4300,
    "ooth": 4301,
    "ĠSA": 4302,
    "ĠSi": 4303,
    "ĠSao": 4304,
    "ĠShan": 4305,
    "ĠSpe": 4306,
    "ĠSally": 4307,
    "ĠSacramento": 4308,
    "ĠSmith": 4309,
    "Ġchahte": 4310,
    "holiday": 4311,
    "Ġhume": 4312,
    "Ġhuwa": 4313,
    "Ġsaap": 4314,
    "Ġdew": 4315,
    "Ġdega": 4316,
    "Ġdeter": 4317,
    "Ġdesakte": 4318,
    "thony": 4319,
    "Ġeye": 4320,
    "Ġeve": 4321,
    "Ġemo": 4322,
    "Ġteeth": 4323,
    "Ġtexas": 4324,
    "Ġ57": 4325,
    "ĠCA": 4326,
    "ĠCarey": 4327,
    "ĠClass": 4328,
    "ĠClub": 4329,
    "ĠChes": 4330,
    "ĠCentral": 4331,
    "ĠColdplay": 4332,
    "ape": 4333,
    "cky": 4334,
    "ckpot": 4335,
    "ancing": 4336,
    "door": 4337,
    "doctor": 4338,
    "Ġdid": 4339,
    "enda": 4340,
    "ĠMat": 4341,
    "ĠMic": 4342,
    "ĠMumb": 4343,
    "ĠMile": 4344,
    "ĠMark": 4345,
    "ĠMorning": 4346,
    "ĠMessage": 4347,
    "ĠMuseum": 4348,
    "ĠMichelle": 4349,
    "Ġ32": 4350,
    "ups": 4351,
    "ety": 4352,
    "etta": 4353,
    "Ġapko": 4354,
    "Ġapril": 4355,
    "Ġisiliye": 4356,
    "istina": 4357,
    "Ġ26": 4358,
    "Ġpaar": 4359,
    "Ġpaonga": 4360,
    "rol": 4361,
    "route": 4362,
    "rough": 4363,
    "agne": 4364,
    "agsta": 4365,
    "ĠTX": 4366,
    "ĠTar": 4367,
    "ĠTai": 4368,
    "ĠTop": 4369,
    "ĠTom": 4370,
    "ĠThank": 4371,
    "ĠTurkey": 4372,
    "ĠTraffic": 4373,
    "ĠTennessee": 4374,
    "ĠTunnel": 4375,
    "gie": 4376,
    "gir": 4377,
    "Ġnami": 4378,
    "Ġnafr": 4379,
    "Ġ600": 4380,
    "Ġcance": 4381,
    "Ġthemed": 4382,
    "Ġaapke": 4383,
    "Ġweekends": 4384,
    "ola": 4385,
    "ĠFood": 4386,
    "ĠFriend": 4387,
    "ĠFair": 4388,
    "ĠFrance": 4389,
    "Ġshahar": 4390,
    "Ġshaadi": 4391,
    "Ġround": 4392,
    "lymp": 4393,
    "ĠAm": 4394,
    "ĠPl": 4395,
    "ĠPar": 4396,
    "ĠPat": 4397,
    "ĠPen": 4398,
    "ĠPart": 4399,
    "ĠPink": 4400,
    "ĠPalm": 4401,
    "ĠPaul": 4402,
    "ĠPres": 4403,
    "ĠPaso": 4404,
    "ĠPensacola": 4405,
    "atherine": 4406,
    "Ġstill": 4407,
    "Ġstuff": 4408,
    "Ġstars": 4409,
    "Ġstove": 4410,
    "Ġstadium": 4411,
    "Ġstones": 4412,
    "ircus": 4413,
    "Ġ84": 4414,
    "ĠBi": 4415,
    "ĠBeat": 4416,
    "ĠBack": 4417,
    "ĠBeyonce": 4418,
    "ĠBuffalo": 4419,
    "ĠBroadway": 4420,
    "Ġdilana": 4421,
    "Ġshuroo": 4422,
    "Ġpehan": 4423,
    "Ġpehn": 4424,
    "Ġbhejte": 4425,
    "Ġkardoge": 4426,
    "Ġ93": 4427,
    "pop": 4428,
    "ĠDec": 4429,
    "Ġsunsc": 4430,
    "Ġhafta": 4431,
    "Ġhafto": 4432,
    "Ġaddress": 4433,
    "kiya": 4434,
    "kira": 4435,
    "Ġva": 4436,
    "Ġvapis": 4437,
    "Ġvitamin": 4438,
    "laundry": 4439,
    "lahas": 4440,
    "Ġagale": 4441,
    "Ġbeau": 4442,
    "Ġbeijing": 4443,
    "Ġbeyonce": 4444,
    "ĠWill": 4445,
    "ĠWhat": 4446,
    "ĠWilliam": 4447,
    "ĠHo": 4448,
    "ĠHill": 4449,
    "ĠHamp": 4450,
    "ĠHwy": 4451,
    "ĠHels": 4452,
    "ĠNC": 4453,
    "ĠNap": 4454,
    "ĠNort": 4455,
    "alls": 4456,
    "Ġrahenge": 4457,
    "ions": 4458,
    "ĠLam": 4459,
    "ĠLong": 4460,
    "ĠLaw": 4461,
    "ĠLove": 4462,
    "ĠLaugh": 4463,
    "ĠLyn": 4464,
    "ĠLinkin": 4465,
    "ĠLubbo": 4466,
    "Ġpoora": 4467,
    "Ġpoori": 4468,
    "Ġpodcast": 4469,
    "Ġpossible": 4470,
    "Ġmosam": 4471,
    "Ġmother": 4472,
    "onds": 4473,
    "ĠInd": 4474,
    "Ġreports": 4475,
    "load": 4476,
    "ched": 4477,
    "ĠJA": 4478,
    "ĠJam": 4479,
    "hirt": 4480,
    "Ġghantey": 4481,
    "Agala": 4482,
    "dians": 4483,
    "Ġchalna": 4484,
    "Ġchalraha": 4485,
    "verett": 4486,
    "Ġappointments": 4487,
    "Ġjose": 4488,
    "Ġjohn": 4489,
    "ngel": 4490,
    "ĠKA": 4491,
    "ĠKy": 4492,
    "ĠKent": 4493,
    "ĠKim": 4494,
    "ĠKathy": 4495,
    "Ġlagayen": 4496,
    "Ġlagenge": 4497,
    "hristina": 4498,
    "ĠGu": 4499,
    "ĠGil": 4500,
    "ĠGood": 4501,
    "anama": 4502,
    "ners": 4503,
    "Ġusse": 4504,
    "umbus": 4505,
    "ĠRe": 4506,
    "ĠRed": 4507,
    "ĠRich": 4508,
    "ĠRiver": 4509,
    "Ġnutcracker": 4510,
    "Ġshoul": 4511,
    "sie": 4512,
    "Ġande": 4513,
    "Ġpadi": 4514,
    "Ġpadho": 4515,
    "Ġdekha": 4516,
    "Ġdekho": 4517,
    "ĠEd": 4518,
    "ĠEm": 4519,
    "ĠEaster": 4520,
    "ĠEST": 4521,
    "avis": 4522,
    "ieve": 4523,
    "Ġlijiye": 4524,
    "Ġlimit": 4525,
    "Ġmilwaukee": 4526,
    "Ġthrough": 4527,
    "Ġbaadh": 4528,
    "Ġbaadme": 4529,
    "oonga": 4530,
    "ĠOne": 4531,
    "ĠOctober": 4532,
    "ĠOmaha": 4533,
    "ĠOlymp": 4534,
    "Ġpohochna": 4535,
    "ulations": 4536,
    "Ġkiske": 4537,
    "Ġreser": 4538,
    "ooklyn": 4539,
    "Ġyard": 4540,
    "Ġyour": 4541,
    "Ġlogo": 4542,
    "Ġcars": 4543,
    "Ġcarni": 4544,
    "Ġcaroling": 4545,
    "Ġupdates": 4546,
    "Mene": 4547,
    "Tim": 4548,
    "dele": 4549,
    "mberlake": 4550,
    "Ġbob": 4551,
    "Ġbone": 4552,
    "Ġbatter": 4553,
    "Ġbatasakte": 4554,
    "Ġbeep": 4555,
    "mington": 4556,
    "tles": 4557,
    "Ġpayments": 4558,
    "ĠMondays": 4559,
    "Fridays": 4560,
    "mage": 4561,
    "ppi": 4562,
    "aley": 4563,
    "Ġdoctors": 4564,
    "ĠSundays": 4565,
    "tract": 4566,
    "Ġkhane": 4567,
    "ternational": 4568,
    "ĠWednesdays": 4569,
    "Ġhiking": 4570,
    "Ġdeliver": 4571,
    "Ġdelivery": 4572,
    "ĠUC": 4573,
    "ĠUS": 4574,
    "ĠUV": 4575,
    "ĠUnivers": 4576,
    "Ġdhup": 4577,
    "vening": 4578,
    "ĠStar": 4579,
    "quet": 4580,
    "Ġkholen": 4581,
    "Ġany": 4582,
    "Ġansw": 4583,
    "Ġdiscount": 4584,
    "mmy": 4585,
    "Ġfridays": 4586,
    "ept": 4587,
    "Ġswim": 4588,
    "Ġrakho": 4589,
    "rides": 4590,
    "ĠJourney": 4591,
    "Ġkhareed": 4592,
    "Ġlocal": 4593,
    "Ġsadke": 4594,
    "Ġhataiye": 4595,
    "Ġbajaayen": 4596,
    "Ġnightly": 4597,
    "Ġleke": 4598,
    "Ġleker": 4599,
    "Ġorgan": 4600,
    "Ġnikaalen": 4601,
    "theek": 4602,
    "ĠRoute": 4603,
    "ĠRose": 4604,
    "Ġtraining": 4605,
    "Ġ2017": 4606,
    "Ġbills": 4607,
    "Ġfrost": 4608,
    "ĠAnthony": 4609,
    "Ġabout": 4610,
    "Ġprep": 4611,
    "Ġpremi": 4612,
    "Ġbachchon": 4613,
    "ansas": 4614,
    "Ġarrive": 4615,
    "inkler": 4616,
    "Ġgot": 4617,
    "Ġjisse": 4618,
    "Ġjiske": 4619,
    "Ġbharne": 4620,
    "Ġtaaki": 4621,
    "Ġchiz": 4622,
    "ticip": 4623,
    "Ġparking": 4624,
    "Ġinterest": 4625,
    "Ġcoldest": 4626,
    "Ġjanta": 4627,
    "Ġcomedians": 4628,
    "Ġkardenge": 4629,
    "Ġpichle": 4630,
    "Ġjaankari": 4631,
    "Ġdilaoge": 4632,
    "Ġpreschool": 4633,
    "colate": 4634,
    "Ġhalf": 4635,
    "Ġlightings": 4636,
    "ĠArts": 4637,
    "ĠBrun": 4638,
    "Ġchuke": 4639,
    "elena": 4640,
    "humare": 4641,
    "rank": 4642,
    "random": 4643,
    "Ġsanta": 4644,
    "Ġsangeet": 4645,
    "ĠYears": 4646,
    "Ġchutkaara": 4647,
    "Route": 4648,
    "Subha": 4649,
    "iano": 4650,
    "raine": 4651,
    "raining": 4652,
    "ĠZeal": 4653,
    "Ġquick": 4654,
    "Ġthanks": 4655,
    "Ġbaccho": 4656,
    "ĠSports": 4657,
    "sterday": 4658,
    "Ġlikhiye": 4659,
    "burgh": 4660,
    "odd": 4661,
    "Ġhaircut": 4662,
    "ichita": 4663,
    "ĠMadonna": 4664,
    "weekends": 4665,
    "Ġbrunch": 4666,
    "Ġbypass": 4667,
    "Ġpehna": 4668,
    "ĠDayton": 4669,
    "hristi": 4670,
    "Ġdhundhe": 4671,
    "Ġasar": 4672,
    "Ġbedtime": 4673,
    "Ġradd": 4674,
    "Ġradh": 4675,
    "Ġradar": 4676,
    "Ġgrunge": 4677,
    "ĠManila": 4678,
    "ĠTimberlake": 4679,
    "Ġbadhaye": 4680,
    "Ġtornadoes": 4681,
    "Scott": 4682,
    "Tommy": 4683,
    "Ġcross": 4684,
    "Ġcrockpot": 4685,
    "Ġgarbage": 4686,
    "Ġspecific": 4687,
    "spital": 4688,
    "ship": 4689,
    "Ġsandals": 4690,
    "Ġdhone": 4691,
    "ookies": 4692,
    "Ġdetour": 4693,
    "ĠTokyo": 4694,
    "Ġpahuncha": 4695,
    "Ġpahunchenge": 4696,
    "ĠBrian": 4697,
    "estiny": 4698,
    "Ġsprings": 4699,
    "Ġniklega": 4700,
    "Beijing": 4701,
    "Ġbrothers": 4702,
    "Ġfastest": 4703,
    "Ġearly": 4704,
    "ĠCannon": 4705,
    "aughter": 4706,
    "Ġpotato": 4707,
    "ĠInternational": 4708,
    "ĠKARO": 4709,
    "ĠGeorge": 4710,
    "Ġnotes": 4711,
    "ĠColumbus": 4712,
    "Ġguzarne": 4713,
    "This": 4714,
    "Thode": 4715,
    "buquer": 4716,
    "bany": 4717,
    "crease": 4718,
    "ground": 4719,
    "grocery": 4720,
    "Ġsuna": 4721,
    "Ġsituation": 4722,
    "Ġtrim": 4723,
    "Ġcamping": 4724,
    "Ġghata": 4725,
    "Ġfishing": 4726,
    "Ġchalegi": 4727,
    "Ġchalana": 4728,
    "ĠFarmer": 4729,
    "ĠProvo": 4730,
    "Ġcostume": 4731,
    "Ġvolume": 4732,
    "ĠKids": 4733,
    "Ġtaxes": 4734,
    "Ġkyunki": 4735,
    "DAY": 4736,
    "Julie": 4737,
    "Jacksonville": 4738,
    "bedtime": 4739,
    "Ġsilent": 4740,
    "Ġservice": 4741,
    "Ġaadha": 4742,
    "Ġletter": 4743,
    "Ġlessons": 4744,
    "Ġbrownies": 4745,
    "yakram": 4746,
    "Ġbathroom": 4747,
    "Ġcelebr": 4748,
    "Ġreturn": 4749,
    "Ġdoosre": 4750,
    "ĠSET": 4751,
    "Ġsafar": 4752,
    "Ġteesre": 4753,
    "ĠThoughts": 4754,
    "ĠPerfect": 4755,
    "Ġview": 4756,
    "Ġvacation": 4757,
    "ĠGardener": 4758,
    "Ġinsurance": 4759,
    "ĠEvents": 4760,
    "ĠExpressway": 4761,
    "ĠEngland": 4762,
    "Ġarrival": 4763,
    "Ġrukegi": 4764,
    "Ġprescription": 4765,
    "Ġestimated": 4766,
    "Carol": 4767,
    "Highway": 4768,
    "Manhattan": 4769,
    "Montreal": 4770,
    "cooking": 4771,
    "monthly": 4772,
    "Ġshift": 4773,
    "Ġsuspend": 4774,
    "Ġshare": 4775,
    "Ġpollen": 4776,
    "Ġreleases": 4777,
    "Ġremaining": 4778,
    "issippi": 4779,
    "ĠSusie": 4780,
    "ĠSquare": 4781,
    "stopwatch": 4782,
    "ĠTwitter": 4783,
    "ĠFireworks": 4784,
    "ĠAirport": 4785,
    "ĠApple": 4786,
    "ĠPaulo": 4787,
    "labama": 4788,
    "ĠKoda": 4789,
    "ĠGroup": 4790,
    "Ġreservations": 4791,
    "Ġexercise": 4792,
    "ĠUnited": 4793,
    "Ġassignment": 4794,
    "graphy": 4795,
    "ĠBritish": 4796,
    "Eminem": 4797,
    "Elvis": 4798,
    "George": 4799,
    "Sharon": 4800,
    "Tallahas": 4801,
    "glasses": 4802,
    "kriya": 4803,
    "pacito": 4804,
    "ratulations": 4805,
    "tomorrow": 4806,
    "ugene": 4807,
    "arasota": 4808,
    "Ġmortgage": 4809,
    "Ġaakhiri": 4810,
    "Ġlightest": 4811,
    "Ġbilkul": 4812,
    "Ġblog": 4813,
    "Ġblizz": 4814,
    "Ġphans": 4815,
    "Ġballet": 4816,
    "onolulu": 4817,
    "atlinburg": 4818,
    "merican": 4819,
    "isconsin": 4820,
    "Ġgarage": 4821,
    "Ġdoodh": 4822,
    "ĠShanghai": 4823,
    "Ġsaaph": 4824,
    "Ġdetergent": 4825,
    "Ġemoji": 4826,
    "ĠChesney": 4827,
    "ĠMumbai": 4828,
    "agstaff": 4829,
    "ĠBeatles": 4830,
    "Ġpehnna": 4831,
    "Ġsunscreen": 4832,
    "ĠHelsinki": 4833,
    "ĠLynn": 4834,
    "ĠLubbock": 4835,
    "Ġshould": 4836,
    "Ġanswer": 4837,
    "ticipated": 4838,
    "ĠZealand": 4839,
    "buquerque": 4840,
    "Tallahassee": 4841,
    "24": 4842,
    "31": 4843,
    "65": 4844,
    "67": 4845,
    "630": 4846,
    "70": 4847,
    "AC": 4848,
    "AS": 4849,
    "Aa": 4850,
    "Ar": 4851,
    "Aur": 4852,
    "Aane": 4853,
    "Aaiye": 4854,
    "Aunt": 4855,
    "Austin": 4856,
    "Abby": 4857,
    "Adele": 4858,
    "Alabama": 4859,
    "BA": 4860,
    "BO": 4861,
    "Bar": 4862,
    "Bahar": 4863,
    "Brand": 4864,
    "Bang": 4865,
    "Bank": 4866,
    "CA": 4867,
    "Cre": 4868,
    "City": 4869,
    "Com": 4870,
    "Celsius": 4871,
    "Central": 4872,
    "Cuba": 4873,
    "Coldplay": 4874,
    "Calf": 4875,
    "Charleston": 4876,
    "Cindy": 4877,
    "Christina": 4878,
    "DB": 4879,
    "DC": 4880,
    "DM": 4881,
    "DX": 4882,
    "Dar": 4883,
    "Din": 4884,
    "Den": 4885,
    "Des": 4886,
    "Dop": 4887,
    "Disney": 4888,
    "DER": 4889,
    "Dog": 4890,
    "ES": 4891,
    "Ep": 4892,
    "Es": 4893,
    "Ele": 4894,
    "Eng": 4895,
    "FF": 4896,
    "Fong": 4897,
    "Flo": 4898,
    "February": 4899,
    "Frank": 4900,
    "Gra": 4901,
    "Gre": 4902,
    "Grand": 4903,
    "Glen": 4904,
    "HI": 4905,
    "Hi": 4906,
    "Hoo": 4907,
    "Hawaii": 4908,
    "IC": 4909,
    "IL": 4910,
    "IR": 4911,
    "Im": 4912,
    "Iran": 4913,
    "Ital": 4914,
    "Jay": 4915,
    "Just": 4916,
    "Jord": 4917,
    "Jason": 4918,
    "Justin": 4919,
    "July": 4920,
    "Josh": 4921,
    "Jean": 4922,
    "KO": 4923,
    "Ke": 4924,
    "Kay": 4925,
    "Kesha": 4926,
    "Kaam": 4927,
    "LE": 4928,
    "LO": 4929,
    "Le": 4930,
    "Lab": 4931,
    "Lex": 4932,
    "Louis": 4933,
    "Ms": 4934,
    "My": 4935,
    "Mar": 4936,
    "Morning": 4937,
    "Mac": 4938,
    "Mos": 4939,
    "Miss": 4940,
    "Max": 4941,
    "Michelle": 4942,
    "NY": 4943,
    "No": 4944,
    "Nick": 4945,
    "North": 4946,
    "Naya": 4947,
    "OA": 4948,
    "OK": 4949,
    "Oregon": 4950,
    "PS": 4951,
    "Pe": 4952,
    "Pat": 4953,
    "Pam": 4954,
    "Poor": 4955,
    "Pham": 4956,
    "Phil": 4957,
    "Paul": 4958,
    "Pizza": 4959,
    "Prin": 4960,
    "PDX": 4961,
    "PHI": 4962,
    "Ra": 4963,
    "Ri": 4964,
    "Rep": 4965,
    "Raat": 4966,
    "Random": 4967,
    "Riverside": 4968,
    "SV": 4969,
    "Sat": 4970,
    "Sand": 4971,
    "Sab": 4972,
    "School": 4973,
    "Sally": 4974,
    "SMS": 4975,
    "Show": 4976,
    "Sydney": 4977,
    "Skype": 4978,
    "Stacy": 4979,
    "SCA": 4980,
    "TB": 4981,
    "Ty": 4982,
    "Ton": 4983,
    "Thoda": 4984,
    "Tina": 4985,
    "Text": 4986,
    "Thank": 4987,
    "Toronto": 4988,
    "Temperature": 4989,
    "Terry": 4990,
    "Tunes": 4991,
    "THE": 4992,
    "Todd": 4993,
    "Um": 4994,
    "Up": 4995,
    "Use": 4996,
    "VR": 4997,
    "Vi": 4998,
    "Vo": 4999,
    "Vic": 5000,
    "VER": 5001,
    "Wend": 5002,
    "Wow": 5003,
    "Wood": 5004,
    "Waha": 5005,
    "Walmart": 5006,
    "William": 5007,
    "Wales": 5008,
    "YA": 5009,
    "YO": 5010,
    "aath": 5011,
    "aver": 5012,
    "aaiye": 5013,
    "actor": 5014,
    "australia": 5015,
    "bd": 5016,
    "bin": 5017,
    "bre": 5018,
    "bile": 5019,
    "bach": 5020,
    "back": 5021,
    "bridge": 5022,
    "buy": 5023,
    "bster": 5024,
    "bills": 5025,
    "bell": 5026,
    "beyonce": 5027,
    "baking": 5028,
    "baltimore": 5029,
    "baseball": 5030,
    "cin": 5031,
    "care": 5032,
    "cow": 5033,
    "cul": 5034,
    "cord": 5035,
    "cue": 5036,
    "cont": 5037,
    "cally": 5038,
    "cure": 5039,
    "clock": 5040,
    "cookie": 5041,
    "dar": 5042,
    "dhe": 5043,
    "don": 5044,
    "dam": 5045,
    "dren": 5046,
    "dusra": 5047,
    "ene": 5048,
    "eff": 5049,
    "eel": 5050,
    "eet": 5051,
    "eight": 5052,
    "fa": 5053,
    "fort": 5054,
    "free": 5055,
    "freeway": 5056,
    "gal": 5057,
    "gle": 5058,
    "gare": 5059,
    "gry": 5060,
    "gers": 5061,
    "gani": 5062,
    "gym": 5063,
    "hl": 5064,
    "hy": 5065,
    "hai": 5066,
    "hre": 5067,
    "ik": 5068,
    "ier": 5069,
    "ient": 5070,
    "iri": 5071,
    "ido": 5072,
    "iet": 5073,
    "ied": 5074,
    "ize": 5075,
    "immy": 5076,
    "je": 5077,
    "jao": 5078,
    "kis": 5079,
    "kers": 5080,
    "krip": 5081,
    "konse": 5082,
    "kron": 5083,
    "kini": 5084,
    "kraine": 5085,
    "lish": 5086,
    "larry": 5087,
    "mar": 5088,
    "mum": 5089,
    "morning": 5090,
    "messenger": 5091,
    "munity": 5092,
    "nb": 5093,
    "nast": 5094,
    "not": 5095,
    "nghai": 5096,
    "oe": 5097,
    "oun": 5098,
    "ock": 5099,
    "office": 5100,
    "ocean": 5101,
    "occ": 5102,
    "pan": 5103,
    "pro": 5104,
    "ped": 5105,
    "park": 5106,
    "phen": 5107,
    "pack": 5108,
    "rub": 5109,
    "rist": 5110,
    "rill": 5111,
    "rain": 5112,
    "rass": 5113,
    "rica": 5114,
    "su": 5115,
    "she": 5116,
    "sen": 5117,
    "sing": 5118,
    "ses": 5119,
    "sgi": 5120,
    "side": 5121,
    "sunday": 5122,
    "spr": 5123,
    "slow": 5124,
    "shirt": 5125,
    "tu": 5126,
    "tur": 5127,
    "tor": 5128,
    "twenty": 5129,
    "tunes": 5130,
    "train": 5131,
    "uf": 5132,
    "ui": 5133,
    "uq": 5134,
    "ule": 5135,
    "uel": 5136,
    "ucha": 5137,
    "ulo": 5138,
    "uway": 5139,
    "uzz": 5140,
    "ukriya": 5141,
    "vai": 5142,
    "vas": 5143,
    "video": 5144,
    "vard": 5145,
    "vitation": 5146,
    "wl": 5147,
    "war": 5148,
    "wer": 5149,
    "win": 5150,
    "wen": 5151,
    "wil": 5152,
    "wing": 5153,
    "wel": 5154,
    "wane": 5155,
    "xa": 5156,
    "xing": 5157,
    "xation": 5158,
    "xville": 5159,
    "xim": 5160,
    "yari": 5161,
    "ylv": 5162,
    "zart": 5163,
    "zard": 5164,
    "Ġ\"": 5165,
    "Ġ#": 5166,
    "Ġ$": 5167,
    "ĠQ": 5168,
    "Ġer": 5169,
    "Ġing": 5170,
    "Ġent": 5171,
    "Ġnd": 5172,
    "Ġid": 5173,
    "Ġide": 5174,
    "Ġown": 5175,
    "Ġques": 5176,
    "Ġunder": 5177,
    "Ġque": 5178,
    "ĠQuebec": 5179,
    "Ġkat": 5180,
    "aron": 5181,
    "arat": 5182,
    "arta": 5183,
    "arahi": 5184,
    "arwater": 5185,
    "aryakram": 5186,
    "Ġmas": 5187,
    "Ġmana": 5188,
    "Ġmore": 5189,
    "Ġmug": 5190,
    "Ġmons": 5191,
    "Ġmarch": 5192,
    "Ġmph": 5193,
    "Ġmichigan": 5194,
    "Ġmuq": 5195,
    "Ġsin": 5196,
    "Ġsna": 5197,
    "Ġsist": 5198,
    "Ġsick": 5199,
    "Ġsoon": 5200,
    "Ġsune": 5201,
    "Ġhas": 5202,
    "Ġhan": 5203,
    "Ġhad": 5204,
    "Ġhist": 5205,
    "Ġhand": 5206,
    "Ġhaw": 5207,
    "Ġhills": 5208,
    "ern": 5209,
    "erne": 5210,
    "ermont": 5211,
    "Ġau": 5212,
    "Ġasa": 5213,
    "Ġaam": 5214,
    "Ġani": 5215,
    "Ġave": 5216,
    "Ġaata": 5217,
    "Ġaab": 5218,
    "Ġadop": 5219,
    "Ġaayi": 5220,
    "Ġaakar": 5221,
    "Ġavai": 5222,
    "Ġkey": 5223,
    "Ġkeep": 5224,
    "Ġkeys": 5225,
    "Ġkarane": 5226,
    "Ġkarraha": 5227,
    "Ġkarrahe": 5228,
    "Ġkarwane": 5229,
    "Ġlu": 5230,
    "Ġlar": 5231,
    "Ġlas": 5232,
    "Ġlat": 5233,
    "Ġlis": 5234,
    "Ġlou": 5235,
    "Ġlondon": 5236,
    "Ġlady": 5237,
    "Ġlaraha": 5238,
    "Ġluck": 5239,
    "Ġlines": 5240,
    "Ġlitter": 5241,
    "Ġlittle": 5242,
    "Ġbur": 5243,
    "Ġbing": 5244,
    "Ġbet": 5245,
    "Ġbir": 5246,
    "Ġbud": 5247,
    "Ġbita": 5248,
    "Ġbull": 5249,
    "Ġbell": 5250,
    "Ġbilli": 5251,
    "Ġblvd": 5252,
    "Ġbait": 5253,
    "Ġblack": 5254,
    "Ġblood": 5255,
    "aid": 5256,
    "aina": 5257,
    "aida": 5258,
    "aines": 5259,
    "Ġtur": 5260,
    "Ġtut": 5261,
    "Ġtool": 5262,
    "Ġtest": 5263,
    "Ġtari": 5264,
    "Ġtina": 5265,
    "Ġtests": 5266,
    "Ġtreat": 5267,
    "Ġpon": 5268,
    "Ġpan": 5269,
    "Ġpil": 5270,
    "Ġped": 5271,
    "Ġpill": 5272,
    "Ġpie": 5273,
    "Ġpich": 5274,
    "Ġpills": 5275,
    "Ġpants": 5276,
    "Ġpati": 5277,
    "Ġpaise": 5278,
    "Ġpiano": 5279,
    "Ġpaida": 5280,
    "ins": 5281,
    "ints": 5282,
    "inning": 5283,
    "yav": 5284,
    "yaun": 5285,
    "yahan": 5286,
    "yatt": 5287,
    "Ġmeal": 5288,
    "Ġmeds": 5289,
    "Ġmetro": 5290,
    "Ġbay": 5291,
    "Ġbaal": 5292,
    "Ġball": 5293,
    "ned": 5294,
    "net": 5295,
    "neil": 5296,
    "nect": 5297,
    "nette": 5298,
    "Ġdc": 5299,
    "Ġdues": 5300,
    "Ġdora": 5301,
    "Ġdud": 5302,
    "Ġduba": 5303,
    "Ġdancing": 5304,
    "Ġdaughter": 5305,
    "Ġrat": 5306,
    "Ġrick": 5307,
    "Ġraining": 5308,
    "Ġrandom": 5309,
    "Ġhailing": 5310,
    "hem": 5311,
    "hena": 5312,
    "hears": 5313,
    "hester": 5314,
    "hesh": 5315,
    "Ġsea": 5316,
    "Ġsever": 5317,
    "Ġseattle": 5318,
    "hal": 5319,
    "hao": 5320,
    "hale": 5321,
    "hana": 5322,
    "hata": 5323,
    "half": 5324,
    "Ġkaregi": 5325,
    "ald": 5326,
    "alon": 5327,
    "alth": 5328,
    "ality": 5329,
    "album": 5330,
    "Ġca": 5331,
    "Ġcm": 5332,
    "Ġcere": 5333,
    "Ġcookie": 5334,
    "Ġcircus": 5335,
    "Ġchristi": 5336,
    "Ġcookies": 5337,
    "onathan": 5338,
    "tee": 5339,
    "tel": 5340,
    "tead": 5341,
    "temp": 5342,
    "asta": 5343,
    "ayiye": 5344,
    "ayne": 5345,
    "ayla": 5346,
    "ayrides": 5347,
    "arma": 5348,
    "armony": 5349,
    "lee": 5350,
    "lene": 5351,
    "lege": 5352,
    "leil": 5353,
    "ledo": 5354,
    "lets": 5355,
    "atha": 5356,
    "atlanta": 5357,
    "ataly": 5358,
    "Ġalag": 5359,
    "Ġaller": 5360,
    "Ġalmost": 5361,
    "Ġwon": 5362,
    "Ġworld": 5363,
    "Ġwait": 5364,
    "Ġworry": 5365,
    "ujood": 5366,
    "uren": 5367,
    "urch": 5368,
    "urni": 5369,
    "urse": 5370,
    "urly": 5371,
    "urope": 5372,
    "enue": 5373,
    "entire": 5374,
    "Ġred": 5375,
    "Ġreh": 5376,
    "Ġreco": 5377,
    "Ġready": 5378,
    "Ġremid": 5379,
    "Ġreject": 5380,
    "Ġretire": 5381,
    "Ġreocc": 5382,
    "Ġrehears": 5383,
    "Ġkahen": 5384,
    "Ġkaaryakram": 5385,
    "nak": 5386,
    "nap": 5387,
    "nahi": 5388,
    "sad": 5389,
    "sabi": 5390,
    "sacramento": 5391,
    "ores": 5392,
    "orted": 5393,
    "ism": 5394,
    "ises": 5395,
    "isplay": 5396,
    "Ġbajai": 5397,
    "Ġbajhne": 5398,
    "Ġbajhta": 5399,
    "eke": 5400,
    "Ġhol": 5401,
    "Ġhoha": 5402,
    "Ġhosak": 5403,
    "Ġhope": 5404,
    "Ġhochu": 5405,
    "Ġhospital": 5406,
    "ano": 5407,
    "anon": 5408,
    "ania": 5409,
    "anniversary": 5410,
    "ahu": 5411,
    "Ġpart": 5412,
    "Ġpardhe": 5413,
    "Ġtiger": 5414,
    "gee": 5415,
    "unte": 5416,
    "ungi": 5417,
    "unset": 5418,
    "unities": 5419,
    "unui": 5420,
    "ads": 5421,
    "aden": 5422,
    "adul": 5423,
    "adstone": 5424,
    "ajor": 5425,
    "Ġglo": 5426,
    "Ġgive": 5427,
    "Ġgayi": 5428,
    "Ġghum": 5429,
    "Ġgrandma": 5430,
    "Ġgrab": 5431,
    "Ġgolf": 5432,
    "hiri": 5433,
    "hili": 5434,
    "hithe": 5435,
    "hiking": 5436,
    "tau": 5437,
    "tana": 5438,
    "tamp": 5439,
    "Ġhear": 5440,
    "Ġhein": 5441,
    "Ġhealth": 5442,
    "race": 5443,
    "rafts": 5444,
    "razil": 5445,
    "chhe": 5446,
    "chra": 5447,
    "chicago": 5448,
    "chard": 5449,
    "church": 5450,
    "Ġjayen": 5451,
    "Ġjaiye": 5452,
    "Ġjaisa": 5453,
    "usta": 5454,
    "usual": 5455,
    "uscal": 5456,
    "Ġbajega": 5457,
    "Ġfarm": 5458,
    "Ġfut": 5459,
    "Ġfli": 5460,
    "Ġfile": 5461,
    "Ġfest": 5462,
    "Ġfolk": 5463,
    "Ġfifteen": 5464,
    "Ġfuel": 5465,
    "Ġfurni": 5466,
    "Ġwell": 5467,
    "tib": 5468,
    "tiz": 5469,
    "tiff": 5470,
    "tiful": 5471,
    "tiple": 5472,
    "ayed": 5473,
    "ayein": 5474,
    "ayette": 5475,
    "Ġraa": 5476,
    "ffe": 5477,
    "ffith": 5478,
    "Ġchaar": 5479,
    "Ġminuter": 5480,
    "Ġtractor": 5481,
    "gaane": 5482,
    "gaana": 5483,
    "esh": 5484,
    "esse": 5485,
    "esqu": 5486,
    "nimal": 5487,
    "Ġdohar": 5488,
    "Kyaa": 5489,
    "ubby": 5490,
    "Ġjahan": 5491,
    "Ġjaata": 5492,
    "Ġjaaraha": 5493,
    "Ġjaakar": 5494,
    "Ġjaasakta": 5495,
    "Ġjapan": 5496,
    "redi": 5497,
    "rect": 5498,
    "reland": 5499,
    "reening": 5500,
    "ela": 5501,
    "elly": 5502,
    "eline": 5503,
    "Ġlaa": 5504,
    "Ġlao": 5505,
    "Ġlaw": 5506,
    "Ġlaao": 5507,
    "Ġlaut": 5508,
    "Ġlaani": 5509,
    "Ġlaud": 5510,
    "Ġlawy": 5511,
    "rier": 5512,
    "river": 5513,
    "riana": 5514,
    "riving": 5515,
    "riffith": 5516,
    "oosa": 5517,
    "oose": 5518,
    "ooke": 5519,
    "ooming": 5520,
    "Ġsubtract": 5521,
    "ndrew": 5522,
    "Ġwalmart": 5523,
    "Ġtoile": 5524,
    "Ġtotal": 5525,
    "Ġtours": 5526,
    "Ġtogether": 5527,
    "ĠSe": 5528,
    "ĠSup": 5529,
    "ĠSaf": 5530,
    "ĠSki": 5531,
    "ĠSarah": 5532,
    "ĠSydney": 5533,
    "ĠSnow": 5534,
    "ĠSkype": 5535,
    "ĠSept": 5536,
    "ĠShre": 5537,
    "section": 5538,
    "second": 5539,
    "september": 5540,
    "hol": 5541,
    "hone": 5542,
    "Ġsao": 5543,
    "Ġdepart": 5544,
    "Ġdedh": 5545,
    "this": 5546,
    "thumbs": 5547,
    "Ġeta": 5548,
    "Ġemp": 5549,
    "Ġeach": 5550,
    "Ġedit": 5551,
    "Ġteach": 5552,
    "Ġ52": 5553,
    "Ġ55": 5554,
    "ĠCD": 5555,
    "ĠCK": 5556,
    "ĠCh": 5557,
    "ĠCl": 5558,
    "ĠCha": 5559,
    "ĠChar": 5560,
    "ĠCed": 5561,
    "ĠCir": 5562,
    "ĠCurrent": 5563,
    "ĠCom": 5564,
    "ĠChurch": 5565,
    "ĠCher": 5566,
    "ĠCrab": 5567,
    "ĠCharleston": 5568,
    "ĠCanada": 5569,
    "ĠCOM": 5570,
    "ĠCairo": 5571,
    "ĠCorner": 5572,
    "ĠCatherine": 5573,
    "ĠCYO": 5574,
    "ĠCrafts": 5575,
    "athing": 5576,
    "athons": 5577,
    "apan": 5578,
    "aping": 5579,
    "asting": 5580,
    "anchester": 5581,
    "atural": 5582,
    "dome": 5583,
    "Ġdiam": 5584,
    "Ġdieg": 5585,
    "endrick": 5586,
    "ĠMI": 5587,
    "ĠMag": 5588,
    "ĠMed": 5589,
    "ĠMary": 5590,
    "ĠMere": 5591,
    "ĠMiss": 5592,
    "ĠMont": 5593,
    "ĠMaster": 5594,
    "ĠMER": 5595,
    "ĠMIN": 5596,
    "ĠMenlo": 5597,
    "ĠMesqu": 5598,
    "Ġ33": 5599,
    "Ġ394": 5600,
    "itne": 5601,
    "itori": 5602,
    "Ġapke": 5603,
    "Ġappe": 5604,
    "idi": 5605,
    "idge": 5606,
    "ident": 5607,
    "idian": 5608,
    "Ġplays": 5609,
    "Ġsakunga": 5610,
    "Ġiske": 5611,
    "stal": 5612,
    "stall": 5613,
    "store": 5614,
    "stery": 5615,
    "veport": 5616,
    "Ġpaa": 5617,
    "Ġpage": 5618,
    "Ġpaaye": 5619,
    "Ġpaunch": 5620,
    "Ġpaulo": 5621,
    "rod": 5622,
    "roe": 5623,
    "roy": 5624,
    "roast": 5625,
    "rown": 5626,
    "roll": 5627,
    "agli": 5628,
    "ĠTA": 5629,
    "ĠTN": 5630,
    "ĠTe": 5631,
    "ĠTah": 5632,
    "ĠTown": 5633,
    "ĠTour": 5634,
    "ĠTurn": 5635,
    "ĠTony": 5636,
    "ĠTunes": 5637,
    "ĠTIM": 5638,
    "ĠTaco": 5639,
    "ĠTRA": 5640,
    "ĠTraining": 5641,
    "ĠTuscal": 5642,
    "ghton": 5643,
    "Ġcancele": 5644,
    "tsdale": 5645,
    "tsburgh": 5646,
    "Ġamend": 5647,
    "Ġaapne": 5648,
    "olu": 5649,
    "olas": 5650,
    "olly": 5651,
    "Ġbands": 5652,
    "mph": 5653,
    "ĠFather": 5654,
    "ĠFlo": 5655,
    "ĠFree": 5656,
    "ĠFargo": 5657,
    "ĠFashi": 5658,
    "ĠFleet": 5659,
    "ĠFalls": 5660,
    "ĠFactor": 5661,
    "Ġshant": 5662,
    "Ġshaher": 5663,
    "Ġshakes": 5664,
    "Ġshanghai": 5665,
    "Ġ77": 5666,
    "Ġ79": 5667,
    "ately": 5668,
    "lymouth": 5669,
    "ĠAA": 5670,
    "ĠAR": 5671,
    "ĠAt": 5672,
    "ĠAmy": 5673,
    "ĠAlex": 5674,
    "ĠAfr": 5675,
    "ĠAngel": 5676,
    "ĠPA": 5677,
    "ĠPay": 5678,
    "ĠPort": 5679,
    "ĠPull": 5680,
    "ĠPitch": 5681,
    "ĠPizza": 5682,
    "ĠPanama": 5683,
    "ĠPlymouth": 5684,
    "Ġsamj": 5685,
    "Ġsamaj": 5686,
    "Ġstay": 5687,
    "ird": 5688,
    "Ġpahucha": 5689,
    "Ġconcord": 5690,
    "Ġ85": 5691,
    "Ġ800": 5692,
    "ĠBA": 5693,
    "ĠBB": 5694,
    "ĠBen": 5695,
    "ĠBre": 5696,
    "ĠBend": 5697,
    "ĠBill": 5698,
    "ĠBurn": 5699,
    "ĠBull": 5700,
    "ĠBilly": 5701,
    "ĠBould": 5702,
    "ĠBaltimore": 5703,
    "ĠBank": 5704,
    "ĠBaseball": 5705,
    "ĠBalto": 5706,
    "ĠBurlington": 5707,
    "ĠBIL": 5708,
    "owling": 5709,
    "andro": 5710,
    "Ġzones": 5711,
    "Ġnikalu": 5712,
    "Ġnikaliye": 5713,
    "Ġnikalraha": 5714,
    "Ġok": 5715,
    "Ġopp": 5716,
    "Ġother": 5717,
    "Ġdilaane": 5718,
    "aft": 5719,
    "Ġbatana": 5720,
    "Ġbataayen": 5721,
    "Ġ41": 5722,
    "Ġ430": 5723,
    "Ġupbeat": 5724,
    "Ġupload": 5725,
    "Ġpeene": 5726,
    "Ġ92": 5727,
    "Ġ97": 5728,
    "usey": 5729,
    "chal": 5730,
    "chaun": 5731,
    "chase": 5732,
    "Ġadhe": 5733,
    "Ġadmiss": 5734,
    "Ġbadhe": 5735,
    "Ġbadaye": 5736,
    "Ġbadme": 5737,
    "Ġbadhne": 5738,
    "Ġcover": 5739,
    "Ġcoach": 5740,
    "Ġcopy": 5741,
    "Ġcounty": 5742,
    "Ġcomic": 5743,
    "Ġcoffe": 5744,
    "ĠDon": 5745,
    "ĠDan": 5746,
    "ĠDad": 5747,
    "ĠDes": 5748,
    "ĠDub": 5749,
    "ĠDel": 5750,
    "ĠDiam": 5751,
    "ĠDance": 5752,
    "ĠDisco": 5753,
    "ĠDowntown": 5754,
    "ĠDavis": 5755,
    "ĠDestiny": 5756,
    "ĠDVR": 5757,
    "ĠDriving": 5758,
    "Ġsuno": 5759,
    "Ġsunta": 5760,
    "Ġsunglasses": 5761,
    "Ġsundar": 5762,
    "Ġlej": 5763,
    "Ġlesakta": 5764,
    "Ġaddition": 5765,
    "Ġvine": 5766,
    "Ġvia": 5767,
    "Ġvyav": 5768,
    "Ġvenue": 5769,
    "lable": 5770,
    "laxation": 5771,
    "mentary": 5772,
    "Ġagenda": 5773,
    "Ġbanana": 5774,
    "Ġbehe": 5775,
    "ĠWE": 5776,
    "ĠWV": 5777,
    "ĠWi": 5778,
    "ĠWat": 5779,
    "ĠWond": 5780,
    "ĠWinter": 5781,
    "ĠWars": 5782,
    "ĠWhatsApp": 5783,
    "ĠWhite": 5784,
    "ĠWichita": 5785,
    "ĠWisconsin": 5786,
    "ĠWyatt": 5787,
    "hley": 5788,
    "ĠHW": 5789,
    "ĠHun": 5790,
    "ĠHut": 5791,
    "ĠHey": 5792,
    "ĠHome": 5793,
    "ĠHits": 5794,
    "ĠHalf": 5795,
    "ĠHamil": 5796,
    "ĠNJ": 5797,
    "ĠNo": 5798,
    "ĠNet": 5799,
    "ĠNina": 5800,
    "ĠNext": 5801,
    "ĠNaper": 5802,
    "ĠNutcracker": 5803,
    "ĠNKO": 5804,
    "ĠNunui": 5805,
    "allica": 5806,
    "ĠLa": 5807,
    "ĠLe": 5808,
    "ĠLor": 5809,
    "ĠLap": 5810,
    "ĠList": 5811,
    "ĠLine": 5812,
    "ĠLake": 5813,
    "ĠLiam": 5814,
    "ĠLily": 5815,
    "ĠLeg": 5816,
    "ĠLisa": 5817,
    "ĠLiz": 5818,
    "ĠLeno": 5819,
    "ĠLittle": 5820,
    "Ġpoint": 5821,
    "Ġpoints": 5822,
    "main": 5823,
    "Ġmoon": 5824,
    "arter": 5825,
    "Ġreported": 5826,
    "los": 5827,
    "loye": 5828,
    "locally": 5829,
    "Ġgaga": 5830,
    "chel": 5831,
    "chet": 5832,
    "ĠJu": 5833,
    "ĠJay": 5834,
    "ĠJess": 5835,
    "ĠJim": 5836,
    "ĠJames": 5837,
    "ĠJersey": 5838,
    "ĠJakar": 5839,
    "ĠJamie": 5840,
    "ĠJosh": 5841,
    "ĠJapan": 5842,
    "agles": 5843,
    "Agale": 5844,
    "dia": 5845,
    "Ġchalaiye": 5846,
    "ortunities": 5847,
    "Ġaasan": 5848,
    "Ġappoin": 5849,
    "icks": 5850,
    "cos": 5851,
    "cousin": 5852,
    "Ġjog": 5853,
    "Ġjogging": 5854,
    "cept": 5855,
    "lantic": 5856,
    "ctron": 5857,
    "ĠKC": 5858,
    "ĠKe": 5859,
    "ĠKate": 5860,
    "ĠKesha": 5861,
    "ĠKyle": 5862,
    "ĠKatie": 5863,
    "ĠKYA": 5864,
    "ĠKayla": 5865,
    "ĠKelly": 5866,
    "ĠKendrick": 5867,
    "Ġyeh": 5868,
    "Ġyears": 5869,
    "Ġyesterday": 5870,
    "Ġlagai": 5871,
    "Ġlagaiye": 5872,
    "ĠGal": 5873,
    "ĠGet": 5874,
    "ĠGame": 5875,
    "ĠGres": 5876,
    "ĠGarth": 5877,
    "ĠGulf": 5878,
    "ĠGPS": 5879,
    "ĠGrill": 5880,
    "ĠGwen": 5881,
    "ĠGriffith": 5882,
    "lia": 5883,
    "lio": 5884,
    "lix": 5885,
    "live": 5886,
    "library": 5887,
    "livia": 5888,
    "Ġusme": 5889,
    "Ġusko": 5890,
    "Ġussey": 5891,
    "ĠRA": 5892,
    "ĠRay": 5893,
    "ĠRes": 5894,
    "ĠRol": 5895,
    "ĠRush": 5896,
    "ĠRoot": 5897,
    "ĠReminder": 5898,
    "ĠRaleigh": 5899,
    "ĠREM": 5900,
    "ĠRSV": 5901,
    "ĠRidge": 5902,
    "Ġnic": 5903,
    "Ġnail": 5904,
    "rystal": 5905,
    "sian": 5906,
    "000": 5907,
    "ĠYou": 5908,
    "ĠYoga": 5909,
    "Ġaccept": 5910,
    "Ġcheese": 5911,
    "Ġbadaliye": 5912,
    "Ġandher": 5913,
    "Ġinf": 5914,
    "Ġinch": 5915,
    "Ġinvo": 5916,
    "Ġincrease": 5917,
    "Ġpadiye": 5918,
    "Ġpadhe": 5919,
    "Ġdekhen": 5920,
    "ĠEK": 5921,
    "ĠEs": 5922,
    "ĠEgg": 5923,
    "ĠEverett": 5924,
    "ĠEugene": 5925,
    "ĠEDM": 5926,
    "Ġskiing": 5927,
    "kaunse": 5928,
    "kachra": 5929,
    "avorite": 5930,
    "avannah": 5931,
    "Ġlibr": 5932,
    "ĠFridays": 5933,
    "Ġmili": 5934,
    "Ġmilunga": 5935,
    "Ġkarsakti": 5936,
    "Ġthink": 5937,
    "Ġbarfile": 5938,
    "ruct": 5939,
    "ains": 5940,
    "ainting": 5941,
    "oons": 5942,
    "ĠOak": 5943,
    "ĠOcean": 5944,
    "ĠOklahoma": 5945,
    "ĠOkay": 5946,
    "Ġrahoonga": 5947,
    "omen": 5948,
    "uling": 5949,
    "ulgari": 5950,
    "ultiple": 5951,
    "Ġmileage": 5952,
    "Ġrescue": 5953,
    "Ġzaroori": 5954,
    "Ġhourly": 5955,
    "ario": 5956,
    "ĠNewark": 5957,
    "Ġyoga": 5958,
    "Ġlot": 5959,
    "Ġchup": 5960,
    "Ġchores": 5961,
    "dates": 5962,
    "Ġshowing": 5963,
    "arkly": 5964,
    "Ġcarp": 5965,
    "amburg": 5966,
    "Ġhumare": 5967,
    "weet": 5968,
    "Ġpicking": 5969,
    "Ġnewest": 5970,
    "Ġunread": 5971,
    "Ġunpa": 5972,
    "Ġunlike": 5973,
    "Ġunusual": 5974,
    "default": 5975,
    "tones": 5976,
    "Ġgroups": 5977,
    "Ġrecital": 5978,
    "ĠVi": 5979,
    "Ġbox": 5980,
    "Ġboat": 5981,
    "Ġbody": 5982,
    "Ġcurrently": 5983,
    "Ġexam": 5984,
    "Ġexisting": 5985,
    "Ġexpressway": 5986,
    "Ġexchan": 5987,
    "vious": 5988,
    "tled": 5989,
    "Ġshort": 5990,
    "Ġshore": 5991,
    "Ġshukriya": 5992,
    "Ġpayday": 5993,
    "Ġalbums": 5994,
    "Ġdikhai": 5995,
    "Ġdikhra": 5996,
    "Ġsnowy": 5997,
    "Ġsnowfall": 5998,
    "Ġspa": 5999,
    "Ġsparkly": 6000,
    "orman": 6001,
    "Ġitem": 6002,
    "Ġimme": 6003,
    "Ġimage": 6004,
    "Ġmaujood": 6005,
    "alexa": 6006,
    "acon": 6007,
    "Ġsoap": 6008,
    "Ġsofa": 6009,
    "osp": 6010,
    "outhampton": 6011,
    "Ġhisa": 6012,
    "Ġaaunga": 6013,
    "Ġaaonga": 6014,
    "Ġkaunsi": 6015,
    "interval": 6016,
    "interview": 6017,
    "Ġcheezen": 6018,
    "mother": 6019,
    "songs": 6020,
    "ĠUT": 6021,
    "ĠUber": 6022,
    "ĠUnic": 6023,
    "ĠUkraine": 6024,
    "vention": 6025,
    "ĠStop": 6026,
    "isey": 6027,
    "iseum": 6028,
    "Ġroken": 6029,
    "Ġkholne": 6030,
    "Ġanum": 6031,
    "Ġantonio": 6032,
    "Ġanticipated": 6033,
    "Ġafter": 6034,
    "Ġdisco": 6035,
    "Ġdishes": 6036,
    "Ġdismiss": 6037,
    "mmend": 6038,
    "Joe": 6039,
    "Ġswing": 6040,
    "Ġrakha": 6041,
    "Ġrakhna": 6042,
    "Ġgirl": 6043,
    "ĠJoe": 6044,
    "ĠJones": 6045,
    "Tuesdays": 6046,
    "itely": 6047,
    "ampbell": 6048,
    "Ġkhareeb": 6049,
    "Ġhamesha": 6050,
    "Ġdental": 6051,
    "Ġhatao": 6052,
    "Ġhatayen": 6053,
    "Ġlows": 6054,
    "Ġlowest": 6055,
    "Ġbhad": 6056,
    "Ġbajaa": 6057,
    "Ġbajaane": 6058,
    "Ġbajaana": 6059,
    "Ġkhojo": 6060,
    "Ġkhojne": 6061,
    "bradenton": 6062,
    "pei": 6063,
    "ĠBob": 6064,
    "ĠBoys": 6065,
    "gery": 6066,
    "rence": 6067,
    "Ġproof": 6068,
    "Ġjagaane": 6069,
    "Ġlagaen": 6070,
    "Ġlagana": 6071,
    "Ġkharidna": 6072,
    "Ġorgani": 6073,
    "Ġbackup": 6074,
    "ĠParkway": 6075,
    "Ġcommunity": 6076,
    "ĠOrmond": 6077,
    "ĠOrange": 6078,
    "moms": 6079,
    "thew": 6080,
    "Ġcloud": 6081,
    "ĠBeaver": 6082,
    "ĠRochester": 6083,
    "oura": 6084,
    "Ġtrai": 6085,
    "Ġtrans": 6086,
    "udson": 6087,
    "uditori": 6088,
    "Ġutne": 6089,
    "Ġutna": 6090,
    "Ġperfor": 6091,
    "Ġhoja": 6092,
    "Ġappt": 6093,
    "Ġapple": 6094,
    "Ġappro": 6095,
    "Ġapply": 6096,
    "ĠAnniversary": 6097,
    "ĠAngry": 6098,
    "Ġexpire": 6099,
    "shaanth": 6100,
    "Ġprevious": 6101,
    "Ġbachna": 6102,
    "Sundays": 6103,
    "dsay": 6104,
    "Ġarlington": 6105,
    "Ġbreathing": 6106,
    "Ġjisper": 6107,
    "usher": 6108,
    "Ġemails": 6109,
    "Ġpehenne": 6110,
    "Johnny": 6111,
    "baaki": 6112,
    "existing": 6113,
    "Ġtaareek": 6114,
    "Ġtaakhi": 6115,
    "Ġtayaar": 6116,
    "Ġtoofaan": 6117,
    "Ġprovid": 6118,
    "Ġchips": 6119,
    "ĠAlbum": 6120,
    "ĠAlbany": 6121,
    "ĠAlbuquerque": 6122,
    "books": 6123,
    "Ġbanquet": 6124,
    "Ġduration": 6125,
    "Ġruka": 6126,
    "Ġparkway": 6127,
    "ĠCoast": 6128,
    "ĠCoup": 6129,
    "ĠCount": 6130,
    "etsy": 6131,
    "Ġinternet": 6132,
    "Ġintersection": 6133,
    "ĠConvention": 6134,
    "Ġrecorded": 6135,
    "Ġwednesdays": 6136,
    "box": 6137,
    "board": 6138,
    "jazz": 6139,
    "waxing": 6140,
    "Ġeveryday": 6141,
    "Ġoptions": 6142,
    "Ġbhejenge": 6143,
    "Ġuthane": 6144,
    "Ġuthaane": 6145,
    "Ġpicture": 6146,
    "Ġpictur": 6147,
    "Ġchode": 6148,
    "Ġchocolate": 6149,
    "Ġjames": 6150,
    "Ġjaanna": 6151,
    "ĠAugustine": 6152,
    "boro": 6153,
    "coln": 6154,
    "Ġmatch": 6155,
    "Ġmarketing": 6156,
    "Ġhazard": 6157,
    "Ġhalki": 6158,
    "Ġhalaath": 6159,
    "ĠBrook": 6160,
    "ĠBrooks": 6161,
    "Ġcomplete": 6162,
    "Ġcompany": 6163,
    "Ġactivate": 6164,
    "Ġchuki": 6165,
    "electric": 6166,
    "humko": 6167,
    "Ġummid": 6168,
    "Ġtennis": 6169,
    "ĠMozart": 6170,
    "Rome": 6171,
    "ucks": 6172,
    "ucky": 6173,
    "ĠZak": 6174,
    "ĠZoo": 6175,
    "Ġquit": 6176,
    "Ġquiet": 6177,
    "Ġquality": 6178,
    "Ġquarter": 6179,
    "Ġkhud": 6180,
    "Ġkhushi": 6181,
    "Ġkhule": 6182,
    "Ġmedications": 6183,
    "Ġbacchhe": 6184,
    "Ġbacchaun": 6185,
    "reggae": 6186,
    "Ġ180": 6187,
    "ĠSparta": 6188,
    "Ġlikhne": 6189,
    "Ġflooded": 6190,
    "Ġsweatshirt": 6191,
    "ARD": 6192,
    "odge": 6193,
    "tany": 6194,
    "Ġsouthbound": 6195,
    "Ġtoronto": 6196,
    "Ġtumhe": 6197,
    "Ġdress": 6198,
    "ichie": 6199,
    "Ġgiregee": 6200,
    "ĠMadison": 6201,
    "Ġpackage": 6202,
    "ĠTheater": 6203,
    "Ġyearly": 6204,
    "umberland": 6205,
    "Ġbreakfast": 6206,
    "Tracy": 6207,
    "Traverse": 6208,
    "ntario": 6209,
    "ogue": 6210,
    "Ġscreening": 6211,
    "Ġbrooks": 6212,
    "Ġtastings": 6213,
    "Ġdryer": 6214,
    "Ġgoods": 6215,
    "Ġgoodnight": 6216,
    "Ġfeeder": 6217,
    "ĠSpring": 6218,
    "ĠCarrie": 6219,
    "Ġrozana": 6220,
    "Ġstorms": 6221,
    "Ġovernight": 6222,
    "Ġpehli": 6223,
    "Ġdhunde": 6224,
    "Ġdhundh": 6225,
    "rict": 6226,
    "Ġitna": 6227,
    "Ġtareeka": 6228,
    "Ġgrass": 6229,
    "Ġgrooming": 6230,
    "Ġjagaye": 6231,
    "Ġjagado": 6232,
    "Ġnikl": 6233,
    "Ġbadhao": 6234,
    "Ġbadhaen": 6235,
    "Apple": 6236,
    "Scottsdale": 6237,
    "lines": 6238,
    "Ġsalad": 6239,
    "Ġtonite": 6240,
    "Ġcrochet": 6241,
    "illian": 6242,
    "Ġjauga": 6243,
    "ĠStephen": 6244,
    "Ġdetroit": 6245,
    "Ġfreezer": 6246,
    "INDER": 6247,
    "Laurel": 6248,
    "Queen": 6249,
    "Queens": 6250,
    "Saare": 6251,
    "Shaam": 6252,
    "bhaari": 6253,
    "scaping": 6254,
    "shuffle": 6255,
    "snow": 6256,
    "spain": 6257,
    "Ġsupper": 6258,
    "Ġsandhesh": 6259,
    "Ġdauran": 6260,
    "Ġcalcul": 6261,
    "Ġcharts": 6262,
    "Ġgreatest": 6263,
    "ĠToledo": 6264,
    "Ġpahunche": 6265,
    "Ġcontacts": 6266,
    "Ġvahaan": 6267,
    "ĠGrande": 6268,
    "2017": 6269,
    "2019": 6270,
    "Bobby": 6271,
    "Ġrukne": 6272,
    "Ġrukna": 6273,
    "Ġniklegi": 6274,
    "Ġniklenge": 6275,
    "Doctor": 6276,
    "Jackie": 6277,
    "Stop": 6278,
    "cello": 6279,
    "izon": 6280,
    "swick": 6281,
    "Ġsurf": 6282,
    "Ġsuraj": 6283,
    "Ġsurgery": 6284,
    "Ġbikini": 6285,
    "Ġbrother": 6286,
    "Ġtaiyari": 6287,
    "Ġthodi": 6288,
    "Ġfasne": 6289,
    "ĠClearwater": 6290,
    "ĠMargare": 6291,
    "ĠMinaj": 6292,
    "ĠMonica": 6293,
    "ĠMoncks": 6294,
    "ĠBarbara": 6295,
    "Ġjodey": 6296,
    "ĠKARE": 6297,
    "Ġkyuki": 6298,
    "Ġguzarna": 6299,
    "Messages": 6300,
    "Thumbs": 6301,
    "Thomas": 6302,
    "john": 6303,
    "Ġsmooth": 6304,
    "Ġtalk": 6305,
    "Ġtalash": 6306,
    "Ġplaces": 6307,
    "Ġcampground": 6308,
    "Ġghadi": 6309,
    "Ġfilter": 6310,
    "Ġchalega": 6311,
    "elback": 6312,
    "ĠShakira": 6313,
    "Ġelectric": 6314,
    "Ġelementary": 6315,
    "ĠFarmers": 6316,
    "ĠPete": 6317,
    "Ġcontruction": 6318,
    "Ġcontinue": 6319,
    "Ġcontrol": 6320,
    "Ġadvisor": 6321,
    "Ġcostco": 6322,
    "Ġvolunte": 6323,
    "ĠHemet": 6324,
    "ĠGreenbay": 6325,
    "Ġnormally": 6326,
    "Ġperformance": 6327,
    "Ġperformances": 6328,
    "Ġpredicted": 6329,
    "Ġbhulgaya": 6330,
    "Ġpresentation": 6331,
    "Ġsoundtracks": 6332,
    "ATH": 6333,
    "Alexa": 6334,
    "Brit": 6335,
    "Brian": 6336,
    "Heidi": 6337,
    "Hamare": 6338,
    "Hamari": 6339,
    "Madrid": 6340,
    "Steve": 6341,
    "Stevie": 6342,
    "iyaan": 6343,
    "vidence": 6344,
    "Ġelm": 6345,
    "Ġmargari": 6346,
    "Ġmichael": 6347,
    "Ġsilence": 6348,
    "Ġservices": 6349,
    "Ġaadhe": 6350,
    "Ġbrowse": 6351,
    "Ġpura": 6352,
    "Ġdesk": 6353,
    "Ġrental": 6354,
    "Ġclim": 6355,
    "Ġcelebrate": 6356,
    "Ġretrie": 6357,
    "Ġgira": 6358,
    "Ġgiri": 6359,
    "highway": 6360,
    "Ġdoosra": 6361,
    "Ġmessenger": 6362,
    "Ġdecor": 6363,
    "Ġteesra": 6364,
    "ĠMera": 6365,
    "ĠMeridian": 6366,
    "ĠMaine": 6367,
    "ĠMidnight": 6368,
    "ĠMaria": 6369,
    "ĠMariah": 6370,
    "ĠFlint": 6371,
    "ĠFlagstaff": 6372,
    "ĠPoint": 6373,
    "Ġcoastal": 6374,
    "Ġvibrate": 6375,
    "ĠLocal": 6376,
    "ĠKingdom": 6377,
    "Ġinstead": 6378,
    "ĠEnglish": 6379,
    "Ġbottles": 6380,
    "Ġextended": 6381,
    "Ġarriving": 6382,
    "Ġchodna": 6383,
    "Ġprescriptions": 6384,
    "softball": 6385,
    "Ġdaalen": 6386,
    "Brent": 6387,
    "Chapel": 6388,
    "Susan": 6389,
    "Springfield": 6390,
    "UTES": 6391,
    "channel": 6392,
    "finitely": 6393,
    "lfriend": 6394,
    "noxville": 6395,
    "phone": 6396,
    "photo": 6397,
    "party": 6398,
    "Ġgeorge": 6399,
    "Ġkhel": 6400,
    "Ġawaz": 6401,
    "Ġawaaz": 6402,
    "Ġtruck": 6403,
    "Ġplumber": 6404,
    "Ġpersonal": 6405,
    "Ġbalance": 6406,
    "Ġdabaye": 6407,
    "Ġdheemi": 6408,
    "Ġghatado": 6409,
    "Ġjitne": 6410,
    "ilots": 6411,
    "iloxi": 6412,
    "Ġfairs": 6413,
    "ĠSoleil": 6414,
    "ĠCongratulations": 6415,
    "ĠMyers": 6416,
    "ĠTrail": 6417,
    "ĠPitt": 6418,
    "Ġconvention": 6419,
    "Ġconventions": 6420,
    "Ġcoupon": 6421,
    "ĠDirections": 6422,
    "ĠNicki": 6423,
    "ĠKaren": 6424,
    "Ġaccounting": 6425,
    "Ġexhibit": 6426,
    "Ġexhibits": 6427,
    "active": 6428,
    "Ġhaalath": 6429,
    "Ġchuttiyon": 6430,
    "ĠCarolina": 6431,
    "Ġengaged": 6432,
    "Ġengagement": 6433,
    "ĠWeekly": 6434,
    "Amanda": 6435,
    "ENT": 6436,
    "Greenville": 6437,
    "Hollywood": 6438,
    "Jessica": 6439,
    "Lindsay": 6440,
    "Maggie": 6441,
    "Spain": 6442,
    "Thurday": 6443,
    "Watsapp": 6444,
    "dunia": 6445,
    "dheeme": 6446,
    "grandpa": 6447,
    "kids": 6448,
    "nsylv": 6449,
    "rayons": 6450,
    "skip": 6451,
    "toofan": 6452,
    "Ġkrne": 6453,
    "Ġkhila": 6454,
    "Ġhaven": 6455,
    "Ġakhiri": 6456,
    "Ġauto": 6457,
    "Ġbrithday": 6458,
    "Ġbought": 6459,
    "Ġtype": 6460,
    "Ġpooche": 6461,
    "Ġpaint": 6462,
    "Ġmeditation": 6463,
    "Ġroll": 6464,
    "Ġselections": 6465,
    "Ġsession": 6466,
    "haftey": 6467,
    "alumni": 6468,
    "Ġcrawl": 6469,
    "Ġwriting": 6470,
    "Ġrelated": 6471,
    "Ġganey": 6472,
    "Ġgenerate": 6473,
    "Ġchaalu": 6474,
    "Ġdoudne": 6475,
    "recurring": 6476,
    "ĠClassical": 6477,
    "ĠMatthew": 6478,
    "ĠMichael": 6479,
    "ĠMarket": 6480,
    "ĠTarget": 6481,
    "ĠTaipei": 6482,
    "girls": 6483,
    "Ġnafrat": 6484,
    "ĠFriendly": 6485,
    "ĠPlains": 6486,
    "ĠParade": 6487,
    "ĠParty": 6488,
    "ĠPresley": 6489,
    "ĠBible": 6490,
    "Ġpehanne": 6491,
    "Ġvitamins": 6492,
    "Ġbeautiful": 6493,
    "ĠWhatsapp": 6494,
    "ĠHampshire": 6495,
    "ĠNaples": 6496,
    "ĠNortheast": 6497,
    "ĠLamar": 6498,
    "ĠLawrence": 6499,
    "cheduling": 6500,
    "ĠKentucky": 6501,
    "ĠRichmond": 6502,
    "ĠEmily": 6503,
    "Ġcarnival": 6504,
    "Ġbattery": 6505,
    "ĠUCF": 6506,
    "ĠUniversity": 6507,
    "Ġswimming": 6508,
    "Ġorganise": 6509,
    "Ġprepare": 6510,
    "Ġinteresting": 6511,
    "ĠBrunswick": 6512,
    "Ġpotatoes": 6513,
    "Ġbathrooms": 6514,
    "Ġcelebrations": 6515,
    "Ġblizzard": 6516,
    "Calfornia": 6517,
    "Denise": 6518,
    "Despacito": 6519,
    "Dopahar": 6520,
    "Epcot": 6521,
    "England": 6522,
    "FFIC": 6523,
    "Fongue": 6524,
    "Jordan": 6525,
    "Joshua": 6526,
    "Labor": 6527,
    "Louisville": 6528,
    "Moscow": 6529,
    "Noah": 6530,
    "Pete": 6531,
    "Poore": 6532,
    "Reply": 6533,
    "Upbeat": 6534,
    "Wendy": 6535,
    "break": 6536,
    "nastics": 6537,
    "seni": 6538,
    "sgiving": 6539,
    "toria": 6540,
    "wilmington": 6541,
    "Ġerase": 6542,
    "Ġingredi": 6543,
    "Ġquestions": 6544,
    "Ġmuggy": 6545,
    "Ġmonsoons": 6546,
    "Ġsnacks": 6547,
    "Ġsisters": 6548,
    "Ġhistory": 6549,
    "Ġadoption": 6550,
    "Ġavailable": 6551,
    "Ġlatin": 6552,
    "Ġliste": 6553,
    "Ġloud": 6554,
    "Ġbingo": 6555,
    "ainesville": 6556,
    "Ġtreatment": 6557,
    "Ġponcho": 6558,
    "Ġpanther": 6559,
    "Ġpilates": 6560,
    "Ġdoraan": 6561,
    "Ġdudh": 6562,
    "Ġdubaara": 6563,
    "Ġsevere": 6564,
    "Ġchristian": 6565,
    "Ġrecommend": 6566,
    "Ġretirement": 6567,
    "Ġreoccurring": 6568,
    "Ġrehearsal": 6569,
    "Ġhochuki": 6570,
    "Ġgloves": 6571,
    "hitheater": 6572,
    "Ġfuture": 6573,
    "Ġflip": 6574,
    "Ġfurniture": 6575,
    "Ġlauderdale": 6576,
    "Ġlawyer": 6577,
    "Ġtoilet": 6578,
    "ĠSuper": 6579,
    "ĠShreveport": 6580,
    "Ġdepartment": 6581,
    "Ġemploye": 6582,
    "ĠCedar": 6583,
    "ĠCirque": 6584,
    "Ġdiego": 6585,
    "ĠMagic": 6586,
    "ĠMINUTES": 6587,
    "ĠMesquite": 6588,
    "rolling": 6589,
    "ĠTRAFFIC": 6590,
    "ĠTuscaloosa": 6591,
    "Ġcanceled": 6592,
    "ĠFloyd": 6593,
    "ĠFashion": 6594,
    "ĠFactory": 6595,
    "ĠAfrica": 6596,
    "ĠBoulder": 6597,
    "ĠBILL": 6598,
    "Ġopportunities": 6599,
    "Ġadmission": 6600,
    "ĠDiamond": 6601,
    "ĠDiscover": 6602,
    "Ġadditional": 6603,
    "ĠWonder": 6604,
    "ĠHamilton": 6605,
    "ĠNaperville": 6606,
    "ĠNKOTB": 6607,
    "ĠLenoir": 6608,
    "ĠJakarta": 6609,
    "ctronic": 6610,
    "ĠGresham": 6611,
    "ĠREMINDER": 6612,
    "ĠRSVP": 6613,
    "Ġandhera": 6614,
    "Ġunpause": 6615,
    "Ġexchange": 6616,
    "Ġitems": 6617,
    "Ġimmedi": 6618,
    "Ġproofing": 6619,
    "Ġorganize": 6620,
    "uditorium": 6621,
    "Ġperforming": 6622,
    "Ġtaareekh": 6623,
    "Ġprovider": 6624,
    "Ġpictures": 6625,
    "Ġcalculate": 6626,
    "ĠMargaret": 6627,
    "Ġmargarita": 6628,
    "Ġretrieve": 6629,
    "nsylvania": 6630,
    "Ġingredients": 6631
}